{
  "version": "1.0",
  "truncation": null,
  "padding": {
    "strategy": "BatchLongest",
    "direction": "Right",
    "pad_to_multiple_of": null,
    "pad_id": 0,
    "pad_type_id": 0,
    "pad_token": "[PAD]"
  },
  "added_tokens": [
    {
      "id": 0,
      "content": "[PAD]",
      "single_word": false,
      "lstrip": false,
      "rstrip": false,
      "normalized": false,
      "special": true
    },
    {
      "id": 1,
      "content": "[UNK]",
      "single_word": false,
      "lstrip": false,
      "rstrip": false,
      "normalized": false,
      "special": true
    },
    {
      "id": 2,
      "content": "[CLS]",
      "single_word": false,
      "lstrip": false,
      "rstrip": false,
      "normalized": false,
      "special": true
    },
    {
      "id": 3,
      "content": "[SEP]",
      "single_word": false,
      "lstrip": false,
      "rstrip": false,
      "normalized": false,
      "special": true
    },
    {
      "id": 4,
      "content": "[MASK]",
      "single_word": false,
      "lstrip": false,
      "rstrip": false,
      "normalized": false,
      "special": true
    },
    {
      "id": 5,
      "content": "<i_am_user>:",
      "single_word": false,
      "lstrip": false,
      "rstrip": false,
      "normalized": false,
      "special": true
    },
    {
      "id": 6,
      "content": "<i_a_unknown>:",
      "single_word": false,
      "lstrip": false,
      "rstrip": false,
      "normalized": false,
      "special": true
    }
  ],
  "normalizer": null,
  "pre_tokenizer": {
    "type": "Sequence",
    "pretokenizers": [
      {
        "type": "Split",
        "pattern": {
          "String": "(?i:'s|'t|'re|'ve|'m|'ll|'d)|[^\\r\\n\\p{L}\\p{N}]?\\p{L}+|\\p{N}| ?[^\\s\\p{L}\\p{N}]+[\\r\\n]*|\\s*[\\r\\n]+|\\s+(?!\\S)|\\s+"
        },
        "behavior": "Isolated",
        "invert": false
      },
      {
        "type": "ByteLevel",
        "add_prefix_space": true,
        "trim_offsets": true,
        "use_regex": false
      }
    ]
  },
  "post_processor": {
    "type": "ByteLevel",
    "add_prefix_space": true,
    "trim_offsets": false,
    "use_regex": true
  },
  "decoder": null,
  "model": {
    "type": "BPE",
    "dropout": null,
    "unk_token": null,
    "continuing_subword_prefix": null,
    "end_of_word_suffix": null,
    "fuse_unk": false,
    "byte_fallback": false,
    "ignore_merges": false,
    "vocab": {
      "[PAD]": 0,
      "[UNK]": 1,
      "[CLS]": 2,
      "[SEP]": 3,
      "[MASK]": 4,
      "<i_am_user>:": 5,
      "<i_a_unknown>:": 6,
      "!": 7,
      "\"": 8,
      "#": 9,
      "$": 10,
      "%": 11,
      "&": 12,
      "'": 13,
      "(": 14,
      ")": 15,
      "*": 16,
      "+": 17,
      ",": 18,
      "-": 19,
      ".": 20,
      "/": 21,
      "0": 22,
      "1": 23,
      "2": 24,
      "3": 25,
      "4": 26,
      "5": 27,
      "6": 28,
      "7": 29,
      "8": 30,
      "9": 31,
      ":": 32,
      ";": 33,
      "<": 34,
      "=": 35,
      ">": 36,
      "?": 37,
      "@": 38,
      "A": 39,
      "B": 40,
      "C": 41,
      "D": 42,
      "E": 43,
      "F": 44,
      "G": 45,
      "H": 46,
      "I": 47,
      "J": 48,
      "K": 49,
      "L": 50,
      "M": 51,
      "N": 52,
      "O": 53,
      "P": 54,
      "Q": 55,
      "R": 56,
      "S": 57,
      "T": 58,
      "U": 59,
      "V": 60,
      "W": 61,
      "X": 62,
      "Y": 63,
      "Z": 64,
      "[": 65,
      "\\": 66,
      "]": 67,
      "^": 68,
      "_": 69,
      "`": 70,
      "a": 71,
      "b": 72,
      "c": 73,
      "d": 74,
      "e": 75,
      "f": 76,
      "g": 77,
      "h": 78,
      "i": 79,
      "j": 80,
      "k": 81,
      "l": 82,
      "m": 83,
      "n": 84,
      "o": 85,
      "p": 86,
      "q": 87,
      "r": 88,
      "s": 89,
      "t": 90,
      "u": 91,
      "v": 92,
      "w": 93,
      "x": 94,
      "y": 95,
      "z": 96,
      "{": 97,
      "|": 98,
      "}": 99,
      "~": 100,
      "¡": 101,
      "¢": 102,
      "£": 103,
      "¤": 104,
      "¥": 105,
      "¦": 106,
      "§": 107,
      "¨": 108,
      "©": 109,
      "ª": 110,
      "«": 111,
      "¬": 112,
      "®": 113,
      "¯": 114,
      "°": 115,
      "±": 116,
      "²": 117,
      "³": 118,
      "´": 119,
      "µ": 120,
      "¶": 121,
      "·": 122,
      "¸": 123,
      "¹": 124,
      "º": 125,
      "»": 126,
      "¼": 127,
      "½": 128,
      "¾": 129,
      "¿": 130,
      "À": 131,
      "Á": 132,
      "Â": 133,
      "Ã": 134,
      "Ä": 135,
      "Å": 136,
      "Æ": 137,
      "Ç": 138,
      "È": 139,
      "É": 140,
      "Ê": 141,
      "Ë": 142,
      "Ì": 143,
      "Í": 144,
      "Î": 145,
      "Ï": 146,
      "Ð": 147,
      "Ñ": 148,
      "Ò": 149,
      "Ó": 150,
      "Ô": 151,
      "Õ": 152,
      "Ö": 153,
      "×": 154,
      "Ø": 155,
      "Ù": 156,
      "Ú": 157,
      "Û": 158,
      "Ü": 159,
      "Ý": 160,
      "Þ": 161,
      "ß": 162,
      "à": 163,
      "á": 164,
      "â": 165,
      "ã": 166,
      "ä": 167,
      "å": 168,
      "æ": 169,
      "ç": 170,
      "è": 171,
      "é": 172,
      "ê": 173,
      "ë": 174,
      "ì": 175,
      "í": 176,
      "î": 177,
      "ï": 178,
      "ð": 179,
      "ñ": 180,
      "ò": 181,
      "ó": 182,
      "ô": 183,
      "õ": 184,
      "ö": 185,
      "÷": 186,
      "ø": 187,
      "ù": 188,
      "ú": 189,
      "û": 190,
      "ü": 191,
      "ý": 192,
      "þ": 193,
      "ÿ": 194,
      "Ā": 195,
      "ā": 196,
      "Ă": 197,
      "ă": 198,
      "Ą": 199,
      "ą": 200,
      "Ć": 201,
      "ć": 202,
      "Ĉ": 203,
      "ĉ": 204,
      "Ċ": 205,
      "ċ": 206,
      "Č": 207,
      "č": 208,
      "Ď": 209,
      "ď": 210,
      "Đ": 211,
      "đ": 212,
      "Ē": 213,
      "ē": 214,
      "Ĕ": 215,
      "ĕ": 216,
      "Ė": 217,
      "ė": 218,
      "Ę": 219,
      "ę": 220,
      "Ě": 221,
      "ě": 222,
      "Ĝ": 223,
      "ĝ": 224,
      "Ğ": 225,
      "ğ": 226,
      "Ġ": 227,
      "ġ": 228,
      "Ģ": 229,
      "ģ": 230,
      "Ĥ": 231,
      "ĥ": 232,
      "Ħ": 233,
      "ħ": 234,
      "Ĩ": 235,
      "ĩ": 236,
      "Ī": 237,
      "ī": 238,
      "Ĭ": 239,
      "ĭ": 240,
      "Į": 241,
      "į": 242,
      "İ": 243,
      "ı": 244,
      "Ĳ": 245,
      "ĳ": 246,
      "Ĵ": 247,
      "ĵ": 248,
      "Ķ": 249,
      "ķ": 250,
      "ĸ": 251,
      "Ĺ": 252,
      "ĺ": 253,
      "Ļ": 254,
      "ļ": 255,
      "Ľ": 256,
      "ľ": 257,
      "Ŀ": 258,
      "ŀ": 259,
      "Ł": 260,
      "ł": 261,
      "Ń": 262,
      "à¤": 263,
      "Ġà¤": 264,
      "à¥": 265,
      "à¤¾": 266,
      "à¥ĩ": 267,
      "à¤°": 268,
      "Ġà¤ķ": 269,
      "eĠ": 270,
      "à¥į": 271,
      "à¤¿": 272,
      "à¥Ģ": 273,
      "à¤¿à¤": 274,
      "à¥ĩĠà¤": 275,
      "à¥įà¤": 276,
      "à¤¾à¤": 277,
      "à¤Ĥ": 278,
      "Ġt": 279,
      "à¥ĭ": 280,
      "Ġà¤¹": 281,
      "à¥Ī": 282,
      "Ġa": 283,
      "à¤ķ": 284,
      "à¤¨": 285,
      "in": 286,
      "¤Ġà¤": 287,
      ".Ġ": 288,
      "à¤¾Ġà¤": 289,
      "ou": 290,
      "sĠ": 291,
      "à¤¸": 292,
      "tĠ": 293,
      "Ġth": 294,
      "à¥ģ": 295,
      "à¥ĢĠà¤": 296,
      "à¤¹": 297,
      "er": 298,
      "on": 299,
      "à¤²": 300,
      "à¤°Ġà¤": 301,
      "à¤®": 302,
      "à¥¤Ġà¤": 303,
      "en": 304,
      "Ġà¤¹à¥Ī": 305,
      "Ġs": 306,
      "or": 307,
      "an": 308,
      "re": 309,
      ",Ġà¤": 310,
      "it": 311,
      "à¤¤": 312,
      "al": 313,
      "at": 314,
      "dĠ": 315,
      "ing": 316,
      ",Ġ": 317,
      "yĠ": 318,
      "à¤Ĺ": 319,
      "ar": 320,
      "à¥ĩà¤Ĥ": 321,
      "es": 322,
      "you": 323,
      "Ġà¤¸": 324,
      "à¤ª": 325,
      "à¥ĩà¤": 326,
      "à¥ĭĠà¤": 327,
      "à¥Ĥ": 328,
      "ic": 329,
      "oĠ": 330,
      "à¤¼": 331,
      "à¥Īà¤Ĥ": 332,
      "is": 333,
      "Ġà¤ķà¥ĩĠà¤": 334,
      "à¤¾à¤°": 335,
      "à¥įà¤°": 336,
      "à¥ģà¤": 337,
      "Ġà¤®": 338,
      "ion": 339,
      "ro": 340,
      "el": 341,
      "ed": 342,
      "Ġc": 343,
      "Ġan": 344,
      "for": 345,
      "isĠ": 346,
      "ĠtheĠ": 347,
      "à¤¿à¤ı": 348,
      "à¤Ł": 349,
      "Ġp": 350,
      "ha": 351,
      "Ġà¤ķà¤°": 352,
      "à¥įà¤¯": 353,
      "à¤°à¥įà¤": 354,
      "à¥ĩĠà¤¹": 355,
      "Ġà¤ª": 356,
      "Ġà¤¬": 357,
      "ec": 358,
      "à¤¿à¤¯": 359,
      "?Ġ": 360,
      "à¤¾Ġà¤¹à¥Ī": 361,
      "iĠ": 362,
      "°à¤¹": 363,
      "ur": 364,
      "à¤¾à¤¨": 365,
      "ay": 366,
      "ĠtoĠ": 367,
      "us": 368,
      "à¥¤": 369,
      "th": 370,
      "ıà¤ķ": 371,
      "il": 372,
      "à¤ļ": 373,
      "ingĠ": 374,
      "²à¤¿à¤ı": 375,
      "à¤ľ": 376,
      "of": 377,
      "ent": 378,
      "à¤¡": 379,
      "à¤¬": 380,
      "om": 381,
      "ver": 382,
      "Ĩà¤ª": 383,
      "à¥įà¤Ł": 384,
      "à¤¿à¤¸": 385,
      "à¤¿à¤²": 386,
      "your": 387,
      "Ġà¤ķà¥ĩĠà¤²à¤¿à¤ı": 388,
      "if": 389,
      "à¥ĩĠà¤ķ": 390,
      "im": 391,
      "Ġà¤¤": 392,
      "le": 393,
      "Ķà¤°Ġà¤": 394,
      "ation": 395,
      "edĠ": 396,
      "Ġm": 397,
      "à¥Īà¤¸": 398,
      "ac": 399,
      "Ġà¤ħ": 400,
      "all": 401,
      "à¤¦": 402,
      "Ġà¤ľ": 403,
      "Ġd": 404,
      "à¤¾à¥¤Ġà¤": 405,
      "veĠ": 406,
      "à¤¨à¥ĩĠà¤": 407,
      "à¥ĩĠà¤¹à¥Īà¤Ĥ": 408,
      "un": 409,
      "à¤¾Ġà¤¹": 410,
      "à¤²Ġà¤": 411,
      "à¥ī": 412,
      "à¤¹à¥Ģ": 413,
      "ow": 414,
      "ir": 415,
      ".ĠĠ": 416,
      "as": 417,
      "Ĩà¤ªà¤ķ": 418,
      "Ġà¤¯": 419,
      "ig": 420,
      "à¥ģà¤®": 421,
      "à¤¿à¤ķ": 422,
      "à¥įà¤ķ": 423,
      "ĠaĠ": 424,
      "ex": 425,
      "itĠ": 426,
      "à¤¯": 427,
      "µà¤¾à¤": 428,
      "ĠthisĠ": 429,
      "Ġà¤¹à¤®": 430,
      "ĩà¤¸": 431,
      "à¥įà¤¸": 432,
      "à¥Ĥà¤": 433,
      "Ġto": 434,
      "kĠ": 435,
      "lo": 436,
      "ĠandĠ": 437,
      "am": 438,
      "aĠ": 439,
      "à¤¾Ġà¤ķ": 440,
      "à¤¾à¤¤": 441,
      "pro": 442,
      "à¥ĭà¤Ĥ": 443,
      "Ġà¤ķà¤°à¤¨": 444,
      "ch": 445,
      "®à¥Īà¤Ĥ": 446,
      "et": 447,
      "à¥ĢĠà¤¹à¥Ī": 448,
      "00": 449,
      "Ġà¤¨": 450,
      "ess": 451,
      "em": 452,
      "st": 453,
      "à¤«": 454,
      "rec": 455,
      "keĠ": 456,
      "à¥ĩĠà¤®": 457,
      "entĠ": 458,
      "oun": 459,
      "à¥ĩà¤¶": 460,
      "Ńà¥ĢĠà¤": 461,
      "Ġà¤¦": 462,
      "ial": 463,
      "Ġà¤ķà¤°Ġà¤": 464,
      "Ġw": 465,
      "à¥ģà¤°": 466,
      "up": 467,
      "à¤¹à¥Ģà¤Ĥ": 468,
      "à¥Ĥà¤ģ": 469,
      "um": 470,
      "à¥ĢĠà¤ķ": 471,
      "go": 472,
      "li": 473,
      "à¤¾à¤ĩ": 474,
      "à¤Ī": 475,
      "ag": 476,
      "à¥ĢĠà¤¸": 477,
      "Ġà¤¹à¥ĭ": 478,
      "à¥ĩà¤ĤĠà¤": 479,
      "à¤¾à¤ģ": 480,
      "à¥Ĥà¤°": 481,
      "à¥įà¤¹": 482,
      "Ġac": 483,
      "id": 484,
      "à¥ĩà¤ľ": 485,
      "qu": 486,
      "à¤¾,Ġà¤": 487,
      "à¥ĩĠà¤¸": 488,
      "reĠ": 489,
      "'sĠ": 490,
      "à¤¿à¤Ĥ": 491,
      "à¤¿à¤Ł": 492,
      "à¥Ģà¤ķ": 493,
      "à¤¹à¥ģà¤": 494,
      "ith": 495,
      "à¥ĩĠà¤ķà¥ĩĠà¤²à¤¿à¤ı": 496,
      "à¤¿à¤¨": 497,
      "à¤¤à¥ĩĠà¤¹à¥Īà¤Ĥ": 498,
      "ut": 499,
      "forĠ": 500,
      "ly": 501,
      "Ġà¤²": 502,
      "à¤¹à¥ģà¤¤Ġà¤": 503,
      "à¥ĩà¤ķ": 504,
      "ma": 505,
      "Ġà¤ķà¥įà¤¯": 506,
      "à¤¾à¤¹": 507,
      "our": 508,
      "à¤¾Ġà¤¸": 509,
      "ol": 510,
      "ľà¤¼": 511,
      "Ġh": 512,
      "off": 513,
      "eĠt": 514,
      "esĠ": 515,
      "Ġf": 516,
      "à¤ļà¥įà¤": 517,
      "à¤¡à¤¼": 518,
      ".Ġw": 519,
      "à¤¾Ġà¤¹à¥Īà¥¤Ġà¤": 520,
      "¤à¥ĭĠà¤": 521,
      "¯à¤¹": 522,
      "à¥ĩĠà¤¬": 523,
      "à¤°Ġà¤ķ": 524,
      "Ġà¤°à¤¹": 525,
      "Ġb": 526,
      "eĠs": 527,
      "ri": 528,
      "Ġab": 529,
      "atĠ": 530,
      "à¥ĩĠà¤ª": 531,
      "¤à¥ģà¤®": 532,
      "à¤¾à¤®": 533,
      "à¥įà¤°à¤¿à¤¯": 534,
      "Ġà¤°": 535,
      "ter": 536,
      "à¤ļà¥įà¤Ľ": 537,
      "à¥ĩà¤°": 538,
      "ul": 539,
      "Ġal": 540,
      "igh": 541,
      "à¥ģà¤²": 542,
      "à¤¾Ġà¤¥": 543,
      "à¥ĩà¤Ĥà¤Ł": 544,
      "con": 545,
      "Ġà¤¹à¥Īà¥¤Ġà¤": 546,
      "ateĠ": 547,
      "Ġpro": 548,
      "youĠ": 549,
      "od": 550,
      "Ġthe": 551,
      "ureĠ": 552,
      "e.Ġ": 553,
      "à¥įà¤²": 554,
      "à¤µ": 555,
      "act": 556,
      "à¤Ĥà¤Ł": 557,
      "?ĠĠ": 558,
      "à¤¨à¤¾Ġà¤": 559,
      "op": 560,
      "à¥ĭà¤Ĺ": 561,
      "à¥ģà¤Ŀ": 562,
      "iv": 563,
      "ĠareĠ": 564,
      "s.Ġ": 565,
      "Ġà¤ķà¥ĢĠà¤": 566,
      "à¥ĭà¤Ī": 567,
      "ra": 568,
      "à¤¾à¤¯": 569,
      "Ġà¤¶": 570,
      "à¤¾à¤²": 571,
      "ne": 572,
      "ant": 573,
      "Ġà¤Ĩ": 574,
      "Ġà¤Ķà¤°Ġà¤": 575,
      "with": 576,
      "ĠthatĠ": 577,
      "no": 578,
      "à¥ĩà¤Ł": 579,
      "lyĠ": 580,
      "Ġthan": 581,
      "Ġà¤ıà¤ķ": 582,
      "à¤°à¥įà¤®": 583,
      "à¤¾à¤¸": 584,
      "à¤¿à¤²à¥įà¤ķ": 585,
      "ail": 586,
      "Ġà¤ķà¤¿": 587,
      "à¥ĩà¤¸": 588,
      "īà¤¸": 589,
      "Ġabou": 590,
      "à¤¤Ġà¤": 591,
      "à¥ģà¤ķ": 592,
      "Ġà¤®à¥ĩà¤Ĥ": 593,
      "and": 594,
      "µà¤¾à¤²": 595,
      "²à¤Ĺ": 596,
      "à¤²à¥įà¤": 597,
      "Ġin": 598,
      "res": 599,
      "lin": 600,
      "à¤¾à¤°à¥ĩĠà¤®": 601,
      "âĤ": 602,
      "âĤ¹": 603,
      "¨à¤¹à¥Ģà¤Ĥ": 604,
      "mentĠ": 605,
      "iveĠ": 606,
      "à¤ľà¤¼": 607,
      "com": 608,
      "haveĠ": 609,
      "à¤¾Ġà¤¹à¥Ĥà¤ģ": 610,
      "ific": 611,
      "à¥Į": 612,
      "à¥ĩà¤¶à¤¨": 613,
      "à¤°à¥Ĥà¤°": 614,
      "ab": 615,
      "ment": 616,
      "ad": 617,
      "à¤¾à¤ı": 618,
      "har": 619,
      "à¥ĢĠà¤¬": 620,
      "à¥ĩà¤®": 621,
      "Ġand": 622,
      "à¥ģà¤Ľ": 623,
      "por": 624,
      "how": 625,
      "Ġtr": 626,
      "à¤¿à¤¸à¥įà¤Ł": 627,
      "Ġsec": 628,
      "Ġacc": 629,
      "ens": 630,
      "Ġthat": 631,
      "Ġà¤ķà¥įà¤¯à¤¾Ġà¤": 632,
      "erĠ": 633,
      "pec": 634,
      "rom": 635,
      "Ġà¤µ": 636,
      "ell": 637,
      "ħà¤ļà¥įà¤Ľ": 638,
      "łà¥Ģà¤ķ": 639,
      "fe": 640,
      "Ġà¤ķà¥ĩĠà¤¬": 641,
      "os": 642,
      "ļà¤¾à¤¹": 643,
      "Ġà¤ķà¤¾Ġà¤": 644,
      "leĠ": 645,
      "med": 646,
      "Ġà¤ķà¥ĭĠà¤": 647,
      "à¤°Ġà¤ª": 648,
      "ill": 649,
      "i'": 650,
      "ple": 651,
      "fir": 652,
      "à¥įà¤°à¥ĭ": 653,
      "à¤¾à¤Ĥ": 654,
      "yes": 655,
      "à¥įà¤¤": 656,
      "anc": 657,
      "Ġà¤¹à¥ĭĠà¤": 658,
      "eĠth": 659,
      "now": 660,
      "ħà¤ª": 661,
      "à¤¿à¤Ĥà¤Ĺ": 662,
      "ĳà¤«": 663,
      "e,Ġ": 664,
      "..": 665,
      "à¤¾à¤¦": 666,
      "Ġà¤«": 667,
      "di": 668,
      "à¤¿à¤¶": 669,
      "à¥ĩà¤²": 670,
      "Ġà¤®à¥Īà¤Ĥ": 671,
      "¯à¥ĩĠà¤": 672,
      "ely": 673,
      "est": 674,
      "à¤²Ġà¤°à¤¹": 675,
      "Ġas": 676,
      "hatĠ": 677,
      "īà¤¨": 678,
      "à¤¾à¤°à¥ĢĠà¤": 679,
      "à¤²à¥įà¤¦": 680,
      "âĢ": 681,
      "à¤ķà¤¤": 682,
      "cess": 683,
      "ya": 684,
      "à¤¾à¤°à¥ĩĠà¤®à¥ĩà¤Ĥ": 685,
      "offic": 686,
      "à¥Ĥà¤Ĥ": 687,
      "Ġà¤¹à¥Ī,Ġà¤": 688,
      "à¤¿à¤²à¥įà¤ķà¥ģà¤²": 689,
      "'s": 690,
      "oul": 691,
      "medi": 692,
      "Ġà¤¸à¥ĩĠà¤": 693,
      "Ĳà¤¸": 694,
      "Ġst": 695,
      "immedi": 696,
      "à¥ĩà¤¨": 697,
      "ħà¤Ĺ": 698,
      "pp": 699,
      "à¥ģà¤Ŀà¥ĩĠà¤": 700,
      "ustĠ": 701,
      "hĠ": 702,
      "ĠthankĠ": 703,
      "à¥īà¤²": 704,
      "Ġà¤¹à¤¾à¤ģ": 705,
      "à¤ı": 706,
      "Ġà¤Ĩà¤ªà¤ķ": 707,
      "enc": 708,
      "à¤ķà¥įà¤": 709,
      "umb": 710,
      "¤à¥ģà¤®à¥įà¤¹": 711,
      "kar": 712,
      "wh": 713,
      "pay": 714,
      "de": 715,
      "Ġà¤¤à¥ģà¤®": 716,
      "yourĠ": 717,
      "firm": 718,
      "à¥ģà¤°à¤Ĥ": 719,
      "à¥ĢĠà¤ª": 720,
      "¬à¤¹à¥ģà¤¤Ġà¤": 721,
      "tion": 722,
      "beĠ": 723,
      "!Ġ": 724,
      "allyĠ": 725,
      "alĠ": 726,
      "numb": 727,
      "à¤¶": 728,
      "port": 729,
      "à¤§": 730,
      "ers": 731,
      "Ġcon": 732,
      "etail": 733,
      "good": 734,
      "à¤Ńà¥ĢĠà¤": 735,
      "likeĠ": 736,
      ",Ġs": 737,
      "à¤¾à¥¤": 738,
      "official": 739,
      "ans": 740,
      "à¤¿à¤¤": 741,
      "ak": 742,
      "à¥ģà¤ķà¥įà¤°à¤¿à¤¯": 743,
      "à¤¿à¤µ": 744,
      "Ġà¤ªà¤°Ġà¤": 745,
      "wa": 746,
      "000": 747,
      "Ġà¤ķà¤°à¤¨à¥ĩĠà¤ķà¥ĩĠà¤²à¤¿à¤ı": 748,
      "it'sĠ": 749,
      "à¥ĢĠà¤¹à¥Īà¥¤Ġà¤": 750,
      "ity": 751,
      "à¥ĩ,Ġà¤": 752,
      "âĢĻ": 753,
      "oug": 754,
      "à¤¾Ġà¤ľ": 755,
      "à¤¢": 756,
      "à¤¾à¤ī": 757,
      "from": 758,
      "ist": 759,
      "hai": 760,
      "à¤ĸ": 761,
      "à¥ģà¤¨": 762,
      "ure": 763,
      "cl": 764,
      "à¥ĢĠà¤¹": 765,
      "ityĠ": 766,
      "à¤¤à¤¾Ġà¤¹à¥Ī": 767,
      "Ġà¤¤à¥ĭĠà¤": 768,
      "à¤°Ġà¤¸": 769,
      "Ġà¤ļ": 770,
      "Ġà¤¯à¤¹": 771,
      "Ġà¤¨à¤¹à¥Ģà¤Ĥ": 772,
      "ok": 773,
      "Ġaccoun": 774,
      "areĠ": 775,
      "way": 776,
      "vic": 777,
      "ouldĠ": 778,
      "Ġà¤Ĺ": 779,
      "à¤¾à¤µ": 780,
      "à¥ĭĠà¤ķ": 781,
      "und": 782,
      "ofĠ": 783,
      "à¤¾Ġà¤ª": 784,
      "à¤¾à¤«": 785,
      "à¥ĭà¤²Ġà¤°à¤¹": 786,
      "ust": 787,
      "vi": 788,
      "ĠaĠs": 789,
      "«à¤¿": 790,
      "²à¥ĩà¤ķ": 791,
      "à¥ĩà¥¤Ġà¤": 792,
      "¬à¤¸": 793,
      "ap": 794,
      "à¥Ģà¥¤Ġà¤": 795,
      ".ĠthisĠ": 796,
      "day": 797,
      "reg": 798,
      "anĠ": 799,
      "veryĠ": 800,
      "¤à¤°": 801,
      "Ġad": 802,
      "à¤¾à¤¨à¤ķ": 803,
      "Ġà¤¹à¤®à¤¾à¤°": 804,
      "à¤¢à¤¼": 805,
      "ot": 806,
      "à¤ķà¥įà¤·": 807,
      "ight": 808,
      "ard": 809,
      "ĠtheyĠ": 810,
      "Ġà¤ķà¤°Ġà¤°à¤¹": 811,
      "r.Ġ": 812,
      "à¤Ĥà¤¬": 813,
      "Ġà¤®à¤¿à¤²": 814,
      "à¥ĭĠà¤¸": 815,
      "Ġà¤ķà¥ĩĠà¤¬à¤¾à¤°à¥ĩĠà¤®à¥ĩà¤Ĥ": 816,
      "Ġà¤¹à¥ĢĠà¤": 817,
      "Ġ'": 818,
      "Ġà¤¡": 819,
      "à¤¾à¤°à¥įà¤": 820,
      "à¤¾à¤īà¤Ĥà¤Ł": 821,
      "à¤Ŀ": 822,
      "edĠtoĠ": 823,
      "à¥ĭà¤¡à¤¼": 824,
      "ification": 825,
      "Ġà¤Ń": 826,
      "rece": 827,
      "ifĠ": 828,
      "i'm": 829,
      "à¥ģà¤°à¤ķà¥įà¤·": 830,
      "uch": 831,
      "à¥Īà¤¸à¥ĩà¤ľ": 832,
      "Ġcom": 833,
      "iĠs": 834,
      "à¤°à¥įà¤Ł": 835,
      "à¤¾à¤ķ": 836,
      "à¥ĩà¤®à¥ĩà¤Ĥà¤Ł": 837,
      "ound": 838,
      "à¥Īà¤¸à¥ĩĠà¤": 839,
      "iteĠ": 840,
      "pe": 841,
      "à¤¨à¥ĩĠà¤ķ": 842,
      "à¥ģà¤°à¤Ĥà¤¤Ġà¤": 843,
      ".ĠweĠ": 844,
      "pleas": 845,
      "ĠaboutĠ": 846,
      "justĠ": 847,
      ",ĠandĠ": 848,
      "oneĠ": 849,
      "essag": 850,
      "à¤Ń": 851,
      "inĠ": 852,
      "'tĠ": 853,
      "ardĠ": 854,
      "myĠ": 855,
      "à¤¾Ġà¤ķà¤¿": 856,
      "à¤ªà¤¯": 857,
      "han": 858,
      "à¥ĢĠà¤ľ": 859,
      "µà¥ĭĠà¤": 860,
      "à¤¹à¤²": 861,
      "end": 862,
      "Ġà¤ķà¤°Ġà¤¦": 863,
      "form": 864,
      "à¥ĩà¤ĸ": 865,
      "à¤¾?": 866,
      "pri": 867,
      "will": 868,
      "à¤¾Ġà¤®": 869,
      "be": 870,
      "andĠ": 871,
      "hel": 872,
      "cam": 873,
      "Ġà¤ĩà¤¸": 874,
      "Ġà¤¬à¤¹à¥ģà¤¤Ġà¤": 875,
      "par": 876,
      "call": 877,
      "à¥ĭà¤Ł": 878,
      "utĠ": 879,
      "à¤ķà¤¾à¤īà¤Ĥà¤Ł": 880,
      "à¤¾Ġà¤¦": 881,
      "fin": 882,
      "Ġam": 883,
      "orĠ": 884,
      "à¤¿à¤«": 885,
      "Ġà¤¹à¤¾à¤ģ,Ġà¤": 886,
      "à¤¾à¤ıà¤Ĺ": 887,
      "à¤¾à¤ĩà¤¨": 888,
      "Ġà¤®à¥ĩà¤ĤĠà¤": 889,
      "à¤µà¤¾à¤": 890,
      "s,Ġ": 891,
      "Ġà¤¥": 892,
      "ĸà¤¾à¤¸": 893,
      "Łà¥įà¤°": 894,
      "Ġà¤ķà¥ĭà¤Ī": 895,
      ",000": 896,
      "à¤¨à¥įà¤": 897,
      ".ĠiĠ": 898,
      "²à¥ĩà¤ķà¤¿à¤¨": 899,
      "yĠs": 900,
      "à¤¾à¤°Ġà¤": 901,
      "à¤¾Ġà¤¬": 902,
      "à¤®à¤Ŀ": 903,
      "ick": 904,
      "iz": 905,
      "ome": 906,
      "à¥įà¤ª": 907,
      "essĠ": 908,
      "weĠ": 909,
      "à¤ķà¥ĩĠà¤": 910,
      "ļà¤¾à¤¹à¤¿à¤ı": 911,
      "Ġà¤¹à¥Īà¤Ĥ": 912,
      "uc": 913,
      "he": 914,
      "Ġà¤¶à¥ģà¤ķà¥įà¤°à¤¿à¤¯": 915,
      "à¥įà¤°à¥ĭà¤¸": 916,
      "à¥ĭà¤¨": 917,
      "ful": 918,
      "yes,Ġ": 919,
      "Ġabout": 920,
      "à¤¤à¥ĩĠà¤¹à¥Īà¤Ĥà¥¤Ġà¤": 921,
      "ough": 922,
      "Ġà¤ķà¥ģà¤Ľ": 923,
      "Ġà¤¤à¥ģà¤®à¥įà¤¹": 924,
      "Ġà¤ĩ": 925,
      "ľà¤²à¥įà¤¦": 926,
      ".ĠtheĠ": 927,
      "ľà¤¼à¤°à¥Ĥà¤°": 928,
      "number": 929,
      "à¤¿à¤¸à¥ĢĠà¤": 930,
      "one": 931,
      "Ġcall": 932,
      "à¤¾Ġà¤²à¤Ĺ": 933,
      "à¥įà¤¯à¤¾à¤¦": 934,
      "hi": 935,
      "ereĠ": 936,
      "à¤¿à¤ª": 937,
      "Ġà¤ħà¤ª": 938,
      "confirm": 939,
      "Ġthis": 940,
      "ayĠ": 941,
      "iou": 942,
      "eĠtoĠ": 943,
      "ĠsecureĠ": 944,
      "oh": 945,
      "detail": 946,
      "per": 947,
      "à¥ĩà¤Ĺ": 948,
      "à¤¸à¤²": 949,
      "à¥ģà¤¤": 950,
      "verif": 951,
      "urg": 952,
      "Ġà¤¯à¥ĩĠà¤": 953,
      "à¥ĭ,Ġà¤": 954,
      "à¥¤Ġà¤¹à¤®": 955,
      "à¤Ĥà¤¦": 956,
      "me": 957,
      "à¥ĩà¤¡": 958,
      "500": 959,
      "right": 960,
      "ħà¤Ĺà¤°Ġà¤": 961,
      "®à¥ĩà¤°": 962,
      "²à¥ĭà¤Ĺ": 963,
      "à¥Ģ,Ġà¤": 964,
      "Ġà¤ķà¥Īà¤¸": 965,
      "Ġapp": 966,
      "à¤¸à¥ĩĠà¤": 967,
      "®à¥ģà¤Ŀà¥ĩĠà¤": 968,
      "verification": 969,
      "ally": 970,
      "ain": 971,
      "à¥įà¤°à¥ĭà¤¸à¥ĩà¤¸": 972,
      "wasĠ": 973,
      "elyĠ": 974,
      "oc": 975,
      "ect": 976,
      "mr.Ġ": 977,
      "Ĺà¤¯": 978,
      "à¥ĢĠà¤®": 979,
      "à¥įà¤¯à¥ĭ": 980,
      "odĠ": 981,
      "ĠthankĠyouĠ": 982,
      "à¤¾Ġà¤¹à¥Ī,Ġà¤": 983,
      "ign": 984,
      "ĠanĠ": 985,
      "à¤¾à¤¤Ġà¤": 986,
      "Ġà¤ķà¤°Ġà¤¸": 987,
      "ep": 988,
      "ationĠ": 989,
      "rect": 990,
      "ank": 991,
      "harma": 992,
      "à¥ĢĠà¤¬à¤¾à¤¤": 993,
      "fer": 994,
      "requ": 995,
      "usu": 996,
      "à¥ĩĠ": 997,
      "Ġtrans": 998,
      "Ġthes": 999,
      "à¤¨à¤²": 1000,
      "Ġà¤Ńà¥ĢĠà¤": 1001,
      "«à¤¿à¤°Ġà¤": 1002,
      "à¤¨à¥įà¤«": 1003,
      "Ġà¤¹à¥ĭĠà¤ľ": 1004,
      "Ġà¤²à¤Ĺ": 1005,
      "à¤¿à¤¤Ġà¤": 1006,
      "à¥Ģà¤ľà¤¼": 1007,
      "à¥ĢĠà¤¹à¥ĭ": 1008,
      "process": 1009,
      "Ġpay": 1010,
      "link": 1011,
      "immediat": 1012,
      "ervic": 1013,
      "vid": 1014,
      "ack": 1015,
      "à¤¹à¥ģà¤¤": 1016,
      "à¥¤Ġ": 1017,
      "sound": 1018,
      "Ġà¤¸à¤¹à¥Ģ": 1019,
      "ear": 1020,
      "Ġact": 1021,
      "notĠ": 1022,
      "out": 1023,
      "eb": 1024,
      "à¥Īà¤ķ": 1025,
      "¯à¤¾Ġà¤": 1026,
      "à¤°à¥įà¤¡": 1027,
      "onĠ": 1028,
      "ing.Ġ": 1029,
      "olut": 1030,
      "à¥ĭà¤ļ": 1031,
      "rem": 1032,
      "à¥įà¤®": 1033,
      "pleaseĠ": 1034,
      "à¤¾à¤Ī": 1035,
      "à¤¾à¤¯à¤¦": 1036,
      "antĠ": 1037,
      "à¤°à¥įà¤¸": 1038,
      "se": 1039,
      "Ġà¤¬à¤¿à¤²à¥įà¤ķà¥ģà¤²": 1040,
      "immediateĠ": 1041,
      "liy": 1042,
      "butĠ": 1043,
      "red": 1044,
      "Ġthat'sĠ": 1045,
      "à¤¾à¤¥": 1046,
      "à¥¤Ġà¤ķ": 1047,
      "pl": 1048,
      "Ġà¤łà¥Ģà¤ķ": 1049,
      "exact": 1050,
      "Ġhel": 1051,
      "à¥Įà¤°Ġà¤ª": 1052,
      "wor": 1053,
      "à¤¿à¤¶à¤¿à¤¯": 1054,
      "à¥Ģà¤¸": 1055,
      "enĠ": 1056,
      "à¥¤Ġà¤ķà¥įà¤¯à¤¾Ġà¤": 1057,
      "ĠaĠb": 1058,
      "ĠaccountĠ": 1059,
      "à¤¿à¤Ĥà¤ķ": 1060,
      "¤à¥ģà¤®à¥įà¤¹à¤¾à¤°": 1061,
      "goodĠ": 1062,
      "à¤¿à¤ķà¥įà¤¯à¥ĭ": 1063,
      "Ġà¤ķà¤°à¤¨à¥ĩĠà¤": 1064,
      "messag": 1065,
      "quiteĠ": 1066,
      "à¤¾Ġà¤¹à¥Ĥà¤ģà¥¤Ġà¤": 1067,
      "ĠtheĠs": 1068,
      "paymentĠ": 1069,
      "Ġà¤¯à¤¾Ġà¤": 1070,
      "¶à¤¨": 1071,
      "à¥ĩĠà¤¹à¥Īà¤Ĥà¥¤Ġà¤": 1072,
      "¬à¤¿à¤²à¥įà¤ķà¥ģà¤²": 1073,
      "ightĠ": 1074,
      "Ġsa": 1075,
      "priya": 1076,
      "à¥Ģà¤®": 1077,
      "it's": 1078,
      "à¤¤à¤¾Ġà¤¹à¥Īà¥¤Ġà¤": 1079,
      "ħà¤ķà¤¾à¤īà¤Ĥà¤Ł": 1080,
      "hiĠ": 1081,
      ",Ġa": 1082,
      "Ġà¤¹à¥Ī?": 1083,
      "à¤¿à¤ĸ": 1084,
      "know": 1085,
      "extĠ": 1086,
      "à¤¦à¤¦": 1087,
      "receiv": 1088,
      "offer": 1089,
      "ind": 1090,
      "Ġà¤ķà¤¿à¤¯": 1091,
      "Ġthr": 1092,
      "ca": 1093,
      "over": 1094,
      "keĠliy": 1095,
      "à¤¾Ġà¤¹à¥Ī?": 1096,
      "Ķà¤°": 1097,
      "à¤Ĥà¤¡": 1098,
      "à¥Īà¤Ĥà¤ķ": 1099,
      "ĳà¤«à¤¿à¤¶à¤¿à¤¯": 1100,
      "ingĠs": 1101,
      "Ġà¤ªà¥įà¤°": 1102,
      "whatĠ": 1103,
      "à¥ģà¤ªà¤¯": 1104,
      "yst": 1105,
      "Ġà¤ħà¤ļà¥įà¤Ľ": 1106,
      "à¤¾Ġà¤¥à¤¾à¥¤Ġà¤": 1107,
      "etĠ": 1108,
      "à¤¿à¤ľ": 1109,
      "ıà¤ķĠà¤": 1110,
      "proc": 1111,
      "not": 1112,
      "¤à¥ģà¤°à¤Ĥà¤¤Ġà¤": 1113,
      "e'": 1114,
      "ub": 1115,
      ",Ġà¤ľ": 1116,
      "âĢĻsĠ": 1117,
      "à¤®à¥ĩà¤Ĥà¤Ł": 1118,
      "à¥ĩĠà¤¹à¥ĭ": 1119,
      "à¥ĭà¤¸": 1120,
      "gu": 1121,
      "ĠthankĠyou": 1122,
      "ef": 1123,
      "neĠ": 1124,
      "Ġà¤ķà¤°à¤¨à¥ĩĠà¤ķ": 1125,
      "dis": 1126,
      "Łà¥įà¤°à¤¾à¤Ĥ": 1127,
      "à¤°à¥įà¤ķ": 1128,
      "à¥ĩà¤²à¥įà¤¸": 1129,
      "eĠtheĠ": 1130,
      "à¥ĭà¤°à¥įà¤Ł": 1131,
      "à¥ĩà¤Ĥà¤¸": 1132,
      "gen": 1133,
      "à¤¨à¥ĩĠà¤ķà¥ĩĠà¤²à¤¿à¤ı": 1134,
      "ystem": 1135,
      "à¤ķà¤°Ġà¤": 1136,
      "Ġalway": 1137,
      "®à¥ĩà¤Ĥ": 1138,
      "leg": 1139,
      "ĠisĠ": 1140,
      "à¥ģà¤²Ġà¤": 1141,
      "à¥Īà¤®": 1142,
      "iti": 1143,
      "ud": 1144,
      "pic": 1145,
      "ll": 1146,
      "Ġany": 1147,
      "forĠtheĠ": 1148,
      "by": 1149,
      ",ĠiĠ": 1150,
      "à¥Ģà¤ľ": 1151,
      "à¥ĢĠà¤¹à¥Īà¤Ĥ": 1152,
      "à¤°,Ġà¤": 1153,
      "à¤Ĥà¤¸": 1154,
      "int": 1155,
      "à¥ģà¤Ĩ": 1156,
      "Ġà¤ķà¥ĩĠà¤¸": 1157,
      "Ġà¤¤à¤°": 1158,
      "...": 1159,
      "Ĩà¤ľ": 1160,
      "iss": 1161,
      "erson": 1162,
      "you'": 1163,
      "à¤¨à¥įà¤«à¤°à¥įà¤®": 1164,
      "à¤°à¥įà¤µ": 1165,
      "na": 1166,
      "à¥ĢĠà¤¹à¥Ĥà¤ģ": 1167,
      "ever": 1168,
      "pre": 1169,
      "gr": 1170,
      "thingĠ": 1171,
      "heĠ": 1172,
      "à¤¾à¤ĩà¤Ł": 1173,
      "à¤¾!": 1174,
      "à¥įà¤¯à¥Ĥ": 1175,
      "Ġà¤¨à¤Ĥà¤¬": 1176,
      "Ġdo": 1177,
      "Ġà¤ķà¤°à¤¨à¤¾Ġà¤": 1178,
      ".ĠitĠ": 1179,
      "do": 1180,
      "à¥ĩà¤¤": 1181,
      "uth": 1182,
      "ĠanyĠ": 1183,
      "ka": 1184,
      "outĠ": 1185,
      "want": 1186,
      "exp": 1187,
      "Ġag": 1188,
      "ho": 1189,
      "Ġsecur": 1190,
      "à¤¾à¤ľ": 1191,
      "Ġà¤ħà¤°": 1192,
      "idĠ": 1193,
      "à¤¾à¤¨à¤ķà¤¾à¤°à¥ĢĠà¤": 1194,
      ".Ġhow": 1195,
      "Ġtoday": 1196,
      "Ġwith": 1197,
      "à¤¿à¤°à¥įà¤": 1198,
      "Ġà¤¬à¥ĭà¤²Ġà¤°à¤¹": 1199,
      "ev": 1200,
      "à¤Ĥà¤ª": 1201,
      "Ġà¤®à¥Īà¤¸à¥ĩà¤ľ": 1202,
      "à¤¿à¤Łà¥ĩà¤²à¥įà¤¸": 1203,
      "help": 1204,
      "akeĠ": 1205,
      "à¤ķà¥įà¤ķ": 1206,
      ",Ġsir": 1207,
      "à¤¾à¤ķà¤¿": 1208,
      "Ġà¤ķà¤¹": 1209,
      "à¥Ģà¤§": 1210,
      "Ġhello": 1211,
      "under": 1212,
      "loc": 1213,
      "¥à¥ĭà¤¡à¤¼": 1214,
      "e.": 1215,
      "ĠareĠyou": 1216,
      "cle": 1217,
      "®à¥Īà¤Ĥà¤¨à¥ĩĠà¤": 1218,
      "Ġà¤¬à¤¾à¤¤": 1219,
      "ourĠ": 1220,
      "ľà¤¼à¥įà¤¯à¤¾à¤¦": 1221,
      "à¤Ńà¥Ģ": 1222,
      "sĠs": 1223,
      "īà¤¨à¥įà¤¹": 1224,
      "à¤®à¥ĩà¤Ĥ": 1225,
      "à¤¸à¥įà¤¤": 1226,
      "eĠisĠ": 1227,
      ".ĠwhatĠ": 1228,
      "cer": 1229,
      "à¥ĩà¤Ĥà¤Ĺ": 1230,
      "¤à¤°à¥Ģà¤ķ": 1231,
      "Ġà¤¸à¤ķà¤¤": 1232,
      "Ġprocess": 1233,
      "à¤¾à¤°à¥įà¤¡": 1234,
      "à¤¹à¤¨": 1235,
      "rat": 1236,
      "Ġall": 1237,
      "e?Ġ": 1238,
      "à¤¢à¤¼à¤¿à¤¯": 1239,
      "à¥Ģà¤¬": 1240,
      "Ġà¤ķà¥īà¤²": 1241,
      "inv": 1242,
      "°à¥ĭ": 1243,
      "anyĠ": 1244,
      "à¤¾à¤¨à¥ĩĠà¤ķà¥ĩĠà¤²à¤¿à¤ı": 1245,
      "eĠa": 1246,
      "Ġà¤®à¥ģà¤Ŀà¥ĩĠà¤": 1247,
      "à¥įà¤ķà¥Īà¤®": 1248,
      "ebs": 1249,
      "Ġsome": 1250,
      "es.Ġ": 1251,
      "ĠâĤ¹": 1252,
      "Ľà¥ĭà¤Ł": 1253,
      "Ġà¤°à¥ģà¤ªà¤¯": 1254,
      "īà¤¨à¤ķ": 1255,
      "don": 1256,
      ".ĠĠoh": 1257,
      "à¤¿à¤°à¥įà¤«": 1258,
      "pos": 1259,
      "pt": 1260,
      "pecial": 1261,
      "à¤¾Ġà¤°à¤¹": 1262,
      "à¤¨à¥ĩĠà¤µà¤¾à¤²": 1263,
      "ach": 1264,
      ",Ġand": 1265,
      "onlin": 1266,
      "99": 1267,
      "Ġà¤¹à¥Ĥà¤ģ": 1268,
      "Ġà¤ķà¤°Ġà¤¸à¤ķà¤¤": 1269,
      "ĩà¤¨": 1270,
      "kiĠ": 1271,
      "à¥ĩà¤°à¤¿à¤«": 1272,
      "à¤¿à¤²à¥įà¤ķà¥ģà¤²Ġà¤": 1273,
      "iĠc": 1274,
      "®à¤¿à¤¸à¥įà¤Ł": 1275,
      "iseĠ": 1276,
      "action": 1277,
      "à¥ĢĠà¤ļ": 1278,
      "doĠ": 1279,
      "get": 1280,
      "Ġà¤ĸ": 1281,
      "rohan": 1282,
      "need": 1283,
      "Ġfe": 1284,
      "immediately": 1285,
      "new": 1286,
      "Ġà¤¹à¥Īà¤²": 1287,
      "Ġà¤¸à¤¬": 1288,
      "à¤¿à¤ķà¥ĩà¤¶à¤¨": 1289,
      "¬à¤¾à¤¤": 1290,
      "exc": 1291,
      "Ġà¤īà¤¸": 1292,
      "Ġaccount": 1293,
      "Ġà¤®à¥ĩà¤°": 1294,
      "à¥Ģà¤¨": 1295,
      "Ġà¤ķà¤°à¤¤à¥ĩĠà¤¹à¥Īà¤Ĥ": 1296,
      "à¥ĭà¤ĤĠà¤ķà¥ĭĠà¤": 1297,
      "lag": 1298,
      "à¥ĢĠà¤¥": 1299,
      "Ġà¤ľà¤¼": 1300,
      "art": 1301,
      "but": 1302,
      "edĠa": 1303,
      "ĠmyĠ": 1304,
      "Ġtheir": 1305,
      "Ġà¤ķà¤°à¤¤": 1306,
      "ĠtoĠbeĠ": 1307,
      "à¥ģà¤°à¤ķà¥įà¤·à¤¿à¤¤Ġà¤": 1308,
      "ĠthisĠisĠ": 1309,
      "eĠtr": 1310,
      "ential": 1311,
      "ħà¤¸à¤²": 1312,
      "à¤®à¤¤": 1313,
      "Ġà¤¦à¥ĩà¤ĸ": 1314,
      "omeĠ": 1315,
      "ass": 1316,
      "solut": 1317,
      "ĠalwaysĠ": 1318,
      "Ĩà¤ªà¤ķà¥ĩĠà¤": 1319,
      ".Ġwh": 1320,
      "soundsĠ": 1321,
      "sharma": 1322,
      "ek": 1323,
      "ron": 1324,
      "val": 1325,
      "bil": 1326,
      "à¤¿à¤®": 1327,
      "ly.Ġ": 1328,
      "underst": 1329,
      "hai.Ġ": 1330,
      "Ġà¤°à¤ĸ": 1331,
      "PI": 1332,
      "tim": 1333,
      "à¥ĥ": 1334,
      "à¤¨à¥įà¤¯": 1335,
      "ba": 1336,
      "quick": 1337,
      "ıà¤ķà¥įà¤¸": 1338,
      "à¤¾Ġà¤¹à¥ĭà¤Ĺ": 1339,
      "plet": 1340,
      "Ġfrom": 1341,
      "can": 1342,
      "ħà¤°": 1343,
      "Ġà¤ı": 1344,
      "ableĠ": 1345,
      "Ġdi": 1346,
      "Ġà¤µà¤¾à¤²": 1347,
      "sĠfor": 1348,
      "leas": 1349,
      "à¥ĢĠà¤¦": 1350,
      "à¤¾Ġà¤¨": 1351,
      "pecific": 1352,
      "Ġconfirm": 1353,
      "à¤¾Ġà¤¹à¥ĭ": 1354,
      "Ġthank": 1355,
      "Ġdetail": 1356,
      "®à¤¿à¤²": 1357,
      "ext": 1358,
      "prom": 1359,
      "Ġthey": 1360,
      "estĠ": 1361,
      "ingĠa": 1362,
      "part": 1363,
      "nam": 1364,
      "peak": 1365,
      "Ķà¤°Ġà¤ķ": 1366,
      "à¤°à¤¿à¤Ł": 1367,
      "ħà¤ªà¤¨": 1368,
      "ĠtheseĠ": 1369,
      "à¤¾Ġà¤ļ": 1370,
      "Ġthin": 1371,
      "Ġass": 1372,
      "à¤¾à¤ģà¤Ĺ": 1373,
      "ageĠ": 1374,
      "Ńà¥ĩà¤ľ": 1375,
      "à¤¾Ġ": 1376,
      "her": 1377,
      "Łà¥įà¤°à¤¾à¤Ĥà¤¸": 1378,
      "Ġaf": 1379,
      "arĠ": 1380,
      "Ġà¤ľà¥ĭĠà¤": 1381,
      "cre": 1382,
      "was": 1383,
      "à¥ĭà¤¶": 1384,
      "theĠ": 1385,
      "Ġyou": 1386,
      "ed.Ġ": 1387,
      "à¥ĩà¤¯": 1388,
      "UPI": 1389,
      "à¤¾à¤°à¥įà¤ľ": 1390,
      "dat": 1391,
      "ĠthereĠ": 1392,
      "¡à¤¿à¤Łà¥ĩà¤²à¥įà¤¸": 1393,
      "50": 1394,
      ",Ġà¤Ķà¤°Ġà¤": 1395,
      "Ġpri": 1396,
      "Ġtim": 1397,
      "anceĠ": 1398,
      "okay": 1399,
      "ustom": 1400,
      "sĠareĠ": 1401,
      "bank": 1402,
      "comm": 1403,
      "uthor": 1404,
      "à¤®à¤¤à¥Įà¤°Ġà¤ª": 1405,
      "ph": 1406,
      "Ġde": 1407,
      "5,000": 1408,
      "Ġfor": 1409,
      "Ġà¤Ĩà¤ª": 1410,
      "endĠ": 1411,
      "o,Ġ": 1412,
      "à¤¾Ġà¤¥à¤¾Ġà¤ķà¤¿": 1413,
      "à¥Įà¤ķ": 1414,
      "clus": 1415,
      "à¥ĩà¤¹": 1416,
      "ount": 1417,
      "à¥ĩà¤ķà¥įà¤Ł": 1418,
      "yourĠc": 1419,
      "ast": 1420,
      "eh": 1421,
      "à¤¾Ġà¤¥à¤¾,Ġà¤": 1422,
      "à¤¾Ġà¤Ķà¤°Ġà¤": 1423,
      "provid": 1424,
      "à¤¿à¤¸à¥įà¤Łà¤®": 1425,
      "à¤°à¥įà¤µà¤¿à¤¸": 1426,
      "ensureĠ": 1427,
      "a.Ġ": 1428,
      "ingĠtheĠ": 1429,
      "ical": 1430,
      "12": 1431,
      "ħà¤ªà¤¨à¥ĩĠà¤": 1432,
      "à¥ĩĠà¤¬à¤¾à¤¤": 1433,
      "numberĠ": 1434,
      "Łà¥įà¤°à¤¾à¤Ĥà¤¸à¤«": 1435,
      "lic": 1436,
      "à¥ĩĠà¤¦": 1437,
      "Ġà¤ħà¤Ĺ": 1438,
      "n'tĠ": 1439,
      "needĠtoĠ": 1440,
      "Ġà¤¤à¥ģà¤°à¤Ĥà¤¤Ġà¤": 1441,
      "Ġà¤¤à¥ģà¤®à¥įà¤¹à¤¾à¤°": 1442,
      "nel": 1443,
      "Ġalright": 1444,
      "Ġcomm": 1445,
      "Ġse": 1446,
      "sel": 1447,
      "Ġservic": 1448,
      ".ĠpleaseĠ": 1449,
      "s.": 1450,
      "isĠthisĠ": 1451,
      "exclus": 1452,
      "ric": 1453,
      "getĠ": 1454,
      "read": 1455,
      "ħà¤¨": 1456,
      "Ńà¤°": 1457,
      "i'mĠ": 1458,
      ",Ġmr.Ġ": 1459,
      "Ġà¤ľà¤²à¥įà¤¦": 1460,
      "Ġask": 1461,
      "ĠaĠbitĠ": 1462,
      "itâĢĻsĠ": 1463,
      "?Ġà¤®à¥Īà¤Ĥ": 1464,
      "inter": 1465,
      "Ġà¤¹à¥ĩà¤²": 1466,
      "aim": 1467,
      "Ġà¤¸à¥ģà¤¨": 1468,
      "s.ĠĠ": 1469,
      "à¤µà¤¾à¤¦": 1470,
      "ital": 1471,
      "Ġà¤¶à¥ģà¤ķà¥įà¤°à¤¿à¤¯à¤¾à¥¤Ġà¤": 1472,
      "ĠbeĠ": 1473,
      "ther": 1474,
      "à¤®à¤¸à¥įà¤¤": 1475,
      "ħà¤ļà¥įà¤Ľà¤¾Ġà¤²à¤Ĺ": 1476,
      "à¥įà¤¶à¤¨": 1477,
      "à¤¨à¥įà¤¯à¤µà¤¾à¤¦": 1478,
      "mention": 1479,
      "feeĠ": 1480,
      "direct": 1481,
      "à¤ľà¥Ģà¤¬": 1482,
      "Ġà¤¹à¥ĭà¤¤": 1483,
      "ªà¥įà¤°à¤¿à¤¯": 1484,
      "§à¤¨à¥įà¤¯à¤µà¤¾à¤¦": 1485,
      "à¤¨à¤²à¤¾à¤ĩà¤¨": 1486,
      "y.Ġ": 1487,
      "ĳà¤¨à¤²à¤¾à¤ĩà¤¨": 1488,
      "chec": 1489,
      "haveĠaĠ": 1490,
      "legit": 1491,
      "¯à¥ĩĠà¤¸": 1492,
      "Ġà¤ĳà¤«": 1493,
      "vern": 1494,
      "govern": 1495,
      "rup": 1496,
      "?ĠiĠ": 1497,
      "yes,": 1498,
      "inform": 1499,
      "à¥ĩà¤¬à¤¸": 1500,
      "eĠto": 1501,
      "bo": 1502,
      "à¤°Ġà¤¦": 1503,
      "Ġà¤Ńà¥ĩà¤ľ": 1504,
      "Ġà¤¬à¤¤": 1505,
      "legitim": 1506,
      "à¥Ģà¤¦": 1507,
      "opleĠ": 1508,
      "opport": 1509,
      "à¥ĩà¤¬à¤¸à¤¾à¤ĩà¤Ł": 1510,
      "opportun": 1511,
      "à¥ĢĠà¤°": 1512,
      "ĳà¤«à¤¿à¤¶à¤¿à¤¯à¤²Ġà¤": 1513,
      "à¤¾Ġà¤Ĺà¤¯": 1514,
      "ļà¤¾à¤¹à¤¤": 1515,
      "!Ċ": 1516,
      ",Ġà¤¸": 1517,
      ",Ġà¤¹à¤®": 1518,
      "well": 1519,
      "Ġà¤¹à¥ĪĠà¤ķà¤¿": 1520,
      "cont": 1521,
      "Ġabsolut": 1522,
      "just": 1523,
      "à¥Ĥà¤¸": 1524,
      "aw": 1525,
      "à¥¤Ġà¤®à¥Īà¤Ĥ": 1526,
      "cern": 1527,
      "à¤ł": 1528,
      "es,Ġ": 1529,
      "à¤¿à¤²à¤ķ": 1530,
      "à¤¾à¤Ĺ": 1531,
      "thing": 1532,
      "Ġà¤ħà¤Ńà¥ĢĠà¤": 1533,
      "wouldĠ": 1534,
      "mor": 1535,
      "Ġà¤Ł": 1536,
      "ostĠ": 1537,
      "log": 1538,
      "Ġà¤ķà¥ĭ": 1539,
      "Ġap": 1540,
      "\"Ċ": 1541,
      "à¤¾Ġà¤¹à¥Ĥà¤Ĥ": 1542,
      "atedĠ": 1543,
      "regard": 1544,
      "Ġà¤Ĳà¤¸": 1545,
      "Ġà¤²à¥ĭà¤Ĺ": 1546,
      "ress": 1547,
      "à¥ģà¤¡": 1548,
      "Ġar": 1549,
      "fund": 1550,
      "à¥ĭà¤²": 1551,
      "ħà¤²": 1552,
      "Ġscam": 1553,
      "ister": 1554,
      "Ġà¤Ĩà¤¯": 1555,
      "Ġà¤¹à¥ĭĠà¤ľà¤¾à¤ıà¤Ĺ": 1556,
      "cr": 1557,
      "ĠthankĠyouĠfor": 1558,
      "min": 1559,
      "«à¥ĭà¤¨": 1560,
      "Ġk": 1561,
      "high": 1562,
      "¶à¤°à¥įà¤®": 1563,
      "Ġsm": 1564,
      "à¤¨à¥ĩĠà¤¸": 1565,
      "Ġwill": 1566,
      "Ġactiv": 1567,
      "à¥Īà¤¸à¥ĩĠà¤ķ": 1568,
      "pa": 1569,
      "Ġthrough": 1570,
      "Ġch": 1571,
      "à¥ĥà¤ªà¤¯": 1572,
      "hain": 1573,
      "Ġafter": 1574,
      "der": 1575,
      "à¤¸à¥įà¤Ł": 1576,
      "ingĠtoĠ": 1577,
      "à¤°à¤¿à¤ı": 1578,
      "inĠtheĠ": 1579,
      "mak": 1580,
      "exactly": 1581,
      "Ġà¤¬à¤¹à¥ģà¤¤": 1582,
      "à¤¾à¤°à¥įà¤Ł": 1583,
      "¶à¥ģà¤ķà¥įà¤°à¤¿à¤¯": 1584,
      "ip": 1585,
      "ľà¥ĭĠà¤": 1586,
      "hello": 1587,
      "requi": 1588,
      "excell": 1589,
      "seĠ": 1590,
      "Ġaur": 1591,
      "Ġà¤ªà¥Ĥà¤°": 1592,
      "ªà¥ĩà¤®à¥ĩà¤Ĥà¤Ł": 1593,
      "¤à¥ģà¤®à¥įà¤¹à¥ĩà¤Ĥ": 1594,
      "à¥ĩĠà¤ªà¤¹à¤²": 1595,
      "Ġthat's": 1596,
      "ĠpaymentĠ": 1597,
      "à¤ķà¤²": 1598,
      "atch": 1599,
      "Ġà¤ķà¥ĩĠà¤¸à¤¾à¤¥": 1600,
      "oft": 1601,
      "e.ĠĠ": 1602,
      "à¤¤à¤°": 1603,
      "e,": 1604,
      "iallyĠ": 1605,
      "forĠyour": 1606,
      "Ġthen": 1607,
      "ish": 1608,
      "Ġre": 1609,
      "à¥ĩ?": 1610,
      "useĠ": 1611,
      "ħà¤Ńà¥ĢĠà¤": 1612,
      "à¥įà¤µ": 1613,
      "sec": 1614,
      "comp": 1615,
      "detailsĠ": 1616,
      "itedĠ": 1617,
      "Ĩà¤ªà¤ķà¥ĭĠà¤": 1618,
      "mo": 1619,
      "ang": 1620,
      "ountĠ": 1621,
      "Ġà¤¥à¥ĭà¤¡à¤¼": 1622,
      "à¤ķà¥ĩĠà¤¬": 1623,
      "receiveĠ": 1624,
      "youĠareĠ": 1625,
      "Ġat": 1626,
      "Ġfin": 1627,
      "®à¥ģà¤Ŀ": 1628,
      "Ġà¤ªà¤°": 1629,
      "register": 1630,
      "Ġà¤µà¥ĭĠà¤": 1631,
      "Ġproc": 1632,
      "yaĠ": 1633,
      "à¥ĢĠà¤µ": 1634,
      "à¥ĢĠà¤¹à¥Ī,Ġà¤": 1635,
      "keĠliyeĠ": 1636,
      "lat": 1637,
      "Ġav": 1638,
      "Ġmessag": 1639,
      "à¤ķà¤¤à¥ĩĠà¤¹à¥Īà¤Ĥ": 1640,
      "à¥¤Ġà¤¸": 1641,
      ",ĠweĠ": 1642,
      "Ġà¤ķà¤¨à¥įà¤«à¤°à¥įà¤®": 1643,
      "olic": 1644,
      "¨à¤Ĥà¤¬": 1645,
      "whic": 1646,
      "del": 1647,
      "inst": 1648,
      "à¤ľà¤¿à¤¸à¥įà¤Ł": 1649,
      "ªà¥įà¤°": 1650,
      "à¥Ĥà¤¨": 1651,
      "ancial": 1652,
      "¤à¤°à¤¹": 1653,
      "af": 1654,
      "Ġyour": 1655,
      "ja": 1656,
      "¬à¤¤": 1657,
      "à¤¸à¥įà¤ª": 1658,
      "à¥ĩĠà¤ľ": 1659,
      "à¥ĩĠà¤ķà¥ĩĠà¤": 1660,
      "complet": 1661,
      "·à¥įà¤Ł": 1662,
      "à¤¤à¤°à¥įà¤ķ": 1663,
      "import": 1664,
      "sĠandĠ": 1665,
      "à¤¾à¤°à¥ĩĠà¤®à¥ĩà¤ĤĠà¤": 1666,
      "à¥Ĥà¤Ĥà¤Ĺ": 1667,
      "ew": 1668,
      "self": 1669,
      "Ġà¤ķà¤¿à¤¸": 1670,
      "µà¤¾à¤¹": 1671,
      "meĠ": 1672,
      "à¤®à¥ĩà¤ĤĠà¤": 1673,
      "Ġà¤ªà¥įà¤°à¥ĭà¤¸à¥ĩà¤¸": 1674,
      "à¤°à¥įà¤ļ": 1675,
      "à¤¾Ġà¤ķà¥ĭà¤Ī": 1676,
      "à¤¾Ġà¤¦à¤¿à¤¨": 1677,
      "«à¤¼": 1678,
      "Ġà¤¸à¤¹": 1679,
      "à¤¡à¤®": 1680,
      "à¤¿à¤°": 1681,
      "ĠthatĠsoundsĠ": 1682,
      "aryĠ": 1683,
      "oughĠ": 1684,
      "vis": 1685,
      "à¥ĩà¤®à¤¾à¤²": 1686,
      "à¥įà¤¤à¥ĩà¤®à¤¾à¤²": 1687,
      "espec": 1688,
      "payment": 1689,
      ",ĠbutĠ": 1690,
      "ib": 1691,
      "ersĠ": 1692,
      "edĠs": 1693,
      "²à¤¿à¤Ĥà¤ķ": 1694,
      "ĠtheĠc": 1695,
      "Ġà¤¦à¥ĩà¤¨": 1696,
      "you'reĠ": 1697,
      "Ġà¤²à¤¿à¤Ĥà¤ķ": 1698,
      "oor": 1699,
      "¤à¥ĭ": 1700,
      "à¤°à¤ķ": 1701,
      "man": 1702,
      "¶à¤¾à¤¯à¤¦": 1703,
      "ĠaĠp": 1704,
      "Ġà¤ķà¤°à¤ķà¥ĩĠà¤": 1705,
      "exclusiveĠ": 1706,
      "Ġthough": 1707,
      "ectĠ": 1708,
      "umar": 1709,
      ".Ġs": 1710,
      "à¤¹à¤¾à¤ģ": 1711,
      ",500": 1712,
      "person": 1713,
      "ort": 1714,
      "iĠam": 1715,
      "à¥Ģà¤¡": 1716,
      "isĠthis": 1717,
      "ĠtoĠs": 1718,
      "ency": 1719,
      "care": 1720,
      "ident": 1721,
      "nation": 1722,
      "?ĠĠyes,Ġ": 1723,
      ",Ġà¤ķà¥įà¤¯à¤¾Ġà¤": 1724,
      "ueĠ": 1725,
      "à¥įà¤Łà¤¿à¤µ": 1726,
      "haiĠ": 1727,
      "¦à¥ĩà¤ĸ": 1728,
      "°à¥ĭà¤¹à¤¨": 1729,
      "Ġà¤ªà¤°Ġà¤ķ": 1730,
      "Ġà¤ªà¥ĩà¤®à¥ĩà¤Ĥà¤Ł": 1731,
      "à¤¾à¤ª": 1732,
      "Ġà¤ķà¤°Ġà¤²": 1733,
      "ke": 1734,
      "à¥ĩà¤¨à¤¾Ġà¤": 1735,
      "lim": 1736,
      "à¤®à¤¯": 1737,
      "ĺà¤Ĥà¤Ł": 1738,
      "ľà¤°à¥Ĥà¤°": 1739,
      "Ġà¤¸à¤®à¤Ŀ": 1740,
      "à¤¿à¤²à¤ķà¥ģà¤²": 1741,
      "mightĠ": 1742,
      "elloĠ": 1743,
      "®à¤¿à¤¸à¥įà¤Łà¤°Ġà¤": 1744,
      "à¥ĭà¥¤Ġà¤": 1745,
      "mad": 1746,
      ".ĠtheyĠ": 1747,
      "ĠweĠ": 1748,
      "actic": 1749,
      "cardĠ": 1750,
      "ħà¤Ĺà¤°Ġà¤ķ": 1751,
      "ĠaĠc": 1752,
      "ert": 1753,
      "ĸà¥įà¤¯": 1754,
      "Ġà¤ķà¤®": 1755,
      "Ġaap": 1756,
      "à¥Ģà¤ľà¤¿à¤ı": 1757,
      "Ġà¤ľà¤¾à¤¨": 1758,
      "à¤ķà¤¿": 1759,
      "à¥Įà¤¨": 1760,
      "ıà¤ķĠà¤¸": 1761,
      ".Ġit'sĠ": 1762,
      "messageĠ": 1763,
      "don'tĠ": 1764,
      "uin": 1765,
      "karneĠ": 1766,
      "iousĠ": 1767,
      "Ġà¤Ķà¤°": 1768,
      "ĠthisĠis": 1769,
      "à¤²à¤¾à¤¹": 1770,
      "Ġà¤¹à¤®à¥ĩà¤¶": 1771,
      "à¥Ĥà¤Ľ": 1772,
      "à¥ģà¤¦": 1773,
      "rectĠ": 1774,
      "genuin": 1775,
      "à¥ĢĠà¤¡": 1776,
      "à¤¾à¤¬": 1777,
      "Ġme": 1778,
      "à¤²Ġà¤¸": 1779,
      "¬à¤¢à¤¼à¤¿à¤¯": 1780,
      "à¥ģà¤°à¤Ĥà¤¤": 1781,
      "disc": 1782,
      ",ĠtheĠ": 1783,
      "houldĠ": 1784,
      "Ġà¤¤à¤°à¥Ģà¤ķ": 1785,
      "à¤Ĥà¤ªà¤¨": 1786,
      "fron": 1787,
      "sĠtoĠ": 1788,
      "à¤ķà¥įà¤¸": 1789,
      "à¥ĩà¤°à¤¿à¤«à¤¿à¤ķà¥ĩà¤¶à¤¨": 1790,
      "à¥ĭà¤¬": 1791,
      "à¤¾Ġà¤¹à¥ĪĠà¤ķà¤¿": 1792,
      "Ġà¤°à¤¹à¤¾Ġà¤¹à¥Īà¥¤Ġà¤": 1793,
      "recis": 1794,
      "ħà¤ªà¤¨à¤¾Ġà¤": 1795,
      "rupe": 1796,
      "¯à¥ĩĠà¤¤à¥ĭĠà¤": 1797,
      "âĢĻs": 1798,
      "verify": 1799,
      "ement": 1800,
      "®à¥ĩà¤ĤĠà¤": 1801,
      "à¤¾à¤¨à¥ĩĠà¤ķ": 1802,
      "Ġabsolutely": 1803,
      "10": 1804,
      "à¥įà¤¡": 1805,
      "yourĠp": 1806,
      "à¤¾à¤ĩà¤®": 1807,
      "oper": 1808,
      "jal": 1809,
      "tr": 1810,
      "Ġà¤ķà¥ī": 1811,
      "ingĠp": 1812,
      "dia": 1813,
      "à¤§à¤¾à¤¨": 1814,
      "¤à¤¾à¤ķà¤¿": 1815,
      "à¥įà¤²à¤¿à¤ķ": 1816,
      "withĠ": 1817,
      "ection": 1818,
      "ħà¤¬": 1819,
      "Ġà¤¬à¤¸": 1820,
      "à¤¾à¤µà¤§à¤¾à¤¨": 1821,
      "canĠ": 1822,
      "Ġwebs": 1823,
      "Ġà¤¬à¤¾à¤¤Ġà¤": 1824,
      "upfron": 1825,
      "redĠ": 1826,
      "Ġà¤¹à¥Ĥà¤ģ,Ġà¤": 1827,
      "Ġà¤¶à¤°à¥įà¤®": 1828,
      "goodĠtoĠ": 1829,
      "Ġdis": 1830,
      "olv": 1831,
      "pect": 1832,
      "Ġà¤¬à¤¿à¤²à¥įà¤ķà¥ģà¤²Ġà¤": 1833,
      ".ĠthisĠisĠ": 1834,
      "work": 1835,
      "à¤ļĠà¤®à¥ĩà¤Ĥ": 1836,
      ".ĠthisĠis": 1837,
      "i'll": 1838,
      "onlineĠ": 1839,
      "arg": 1840,
      "à¥ĩĠà¤¬à¤ļ": 1841,
      "raj": 1842,
      "à¤Ĥà¤Ĺ": 1843,
      "prot": 1844,
      "à¥ĢĠà¤Ķà¤°Ġà¤": 1845,
      "à¥¤Ġà¤¹à¤¾à¤ģ,Ġà¤": 1846,
      "fre": 1847,
      "Ġà¤ľà¤¾à¤ıà¤Ĺ": 1848,
      "ing,Ġ": 1849,
      "sĠlikeĠ": 1850,
      "sĠor": 1851,
      "à¤¸à¤¾à¤¨": 1852,
      "Ġà¤ħà¤ķà¤¾à¤īà¤Ĥà¤Ł": 1853,
      "à¤°à¥Ĥ": 1854,
      "koĠ": 1855,
      "mall": 1856,
      "Ġà¤¬à¤¨": 1857,
      ",Ġà¤¤à¥ĭĠà¤": 1858,
      "ould": 1859,
      "Ġà¤¹à¤¾à¤Ĥ": 1860,
      "Ġthos": 1861,
      "look": 1862,
      "eg": 1863,
      "Ġmin": 1864,
      "Ġà¤Ĺà¤¯": 1865,
      "adĠ": 1866,
      "youĠc": 1867,
      "Ġsystem": 1868,
      ".ĠĠoh,Ġ": 1869,
      "Ġà¤¹à¤®à¤¾à¤°à¥ĩĠà¤": 1870,
      "à¤¿à¤ķà¥įà¤¯à¥ĭà¤°à¤¿à¤Ł": 1871,
      "clear": 1872,
      "à¤¾Ġà¤«": 1873,
      "à¥ĩĠà¤ªà¤¾à¤¸": 1874,
      "ļà¤¾à¤¹à¤¿à¤ıà¥¤Ġà¤": 1875,
      "governmentĠ": 1876,
      "Ġà¤ķà¤¿à¤¸à¥ĢĠà¤": 1877,
      "Ġà¤ªà¤¹à¤²": 1878,
      "à¤¾à¤ĵ": 1879,
      "łà¥Ģà¤ķĠà¤¹à¥Ī,Ġà¤": 1880,
      "à¤¾Ġà¤¬à¥ĭà¤²Ġà¤°à¤¹": 1881,
      "usuallyĠ": 1882,
      "los": 1883,
      ",Ġà¤®à¥Īà¤Ĥ": 1884,
      "à¤¿à¤¯à¤®": 1885,
      "ram": 1886,
      "Ġà¤ĸà¤¾à¤¸": 1887,
      "à¥ĩĠà¤¹à¥ĢĠà¤": 1888,
      "Ġà¤¹à¥ĭĠà¤Ĺà¤¯": 1889,
      "wantedĠtoĠ": 1890,
      "à¤°à¤¨": 1891,
      "alk": 1892,
      "Ġà¤ķà¤¾à¤®": 1893,
      "Ġcomp": 1894,
      "à¥ĢĠ": 1895,
      "ĠaskĠ": 1896,
      "duc": 1897,
      "urgentĠ": 1898,
      "Ġta": 1899,
      "claim": 1900,
      "mone": 1901,
      "ĠtextĠ": 1902,
      "à¥ĩà¤ľà¤¼": 1903,
      "à¥ĩà¤Ĥà¤¶": 1904,
      "byĠ": 1905,
      "à¥Ģà¤µ": 1906,
      "Ġthem": 1907,
      "seem": 1908,
      "war": 1909,
      "ĠforĠ": 1910,
      "à¥ĭà¤ĤĠà¤ķà¥ĩĠà¤²à¤¿à¤ı": 1911,
      "ĠsecurityĠ": 1912,
      "à¤¾Ġà¤¨à¤¹à¥Ģà¤Ĥ": 1913,
      "andardĠ": 1914,
      "Ġtransfer": 1915,
      "ech": 1916,
      "ation.Ġ": 1917,
      "upi": 1918,
      "oll": 1919,
      "hop": 1920,
      "à¥Īà¤¸à¥ĩĠà¤®": 1921,
      "Ġthink": 1922,
      "Ńà¤°à¥ĭà¤¸": 1923,
      "à¤¦à¤®": 1924,
      "§à¥įà¤¯": 1925,
      "registeredĠ": 1926,
      "esĠs": 1927,
      "à¤£": 1928,
      "à¤ķà¤®": 1929,
      "Ġà¤ħà¤¸à¤²": 1930,
      "ĠtoĠsecureĠ": 1931,
      "mostĠ": 1932,
      "uspic": 1933,
      "...Ġ": 1934,
      "§à¥įà¤¯à¤¾à¤¨": 1935,
      "ªà¤¸": 1936,
      "Ġà¤¯à¥ĩĠà¤¤à¥ĭĠà¤": 1937,
      "à¥ĭà¤ķ": 1938,
      "à¥ģà¤ª": 1939,
      "à¤¾à¤¤à¥ĩĠà¤¹à¥Īà¤Ĥ": 1940,
      "aj": 1941,
      "befor": 1942,
      "aĠs": 1943,
      "à¥ĩĠà¤°à¤¹": 1944,
      "¬à¤¡à¤¼": 1945,
      "Ġchan": 1946,
      "à¤ķà¥įà¤°à¤¿à¤¯": 1947,
      "ko": 1948,
      "makeĠ": 1949,
      "à¥ĩà¤¸à¥įà¤Ł": 1950,
      "Ġà¤¤à¤°à¤¹": 1951,
      "Ľà¥ĭà¤Łà¤¾Ġà¤¸": 1952,
      "especiallyĠ": 1953,
      "Ĩà¤®à¤¤à¥Įà¤°Ġà¤ª": 1954,
      "Ġà¤«à¥Ģà¤¸": 1955,
      "à¤¾à¤®à¤²": 1956,
      "ual": 1957,
      "won": 1958,
      "ekĠ": 1959,
      "it.Ġ": 1960,
      "à¥ĢĠà¤¤à¤°à¤¹": 1961,
      "ĠthroughĠ": 1962,
      "à¥įà¤°à¥ĩà¤¡": 1963,
      "nextĠ": 1964,
      "à¥ĢĠà¤¬à¤¾à¤¤Ġà¤¹à¥Īà¥¤Ġà¤": 1965,
      "Ġà¤¸à¤¹à¥Ģà¥¤Ġà¤": 1966,
      "Ġà¤¸à¥ĩĠà¤ķ": 1967,
      "Ġcont": 1968,
      "?Ġà¤¯à¤¹": 1969,
      "inde": 1970,
      "à¥ģà¤°à¥Ĥ": 1971,
      "à¤¥": 1972,
      "ious": 1973,
      "ost": 1974,
      "à¤¾à¤¯à¤°": 1975,
      "à¥Ģà¤¯": 1976,
      "ħà¤ľà¥Ģà¤¬": 1977,
      "ous": 1978,
      "lot": 1979,
      "Ġà¤Ķà¤°Ġà¤¸": 1980,
      "gener": 1981,
      "Ġpleas": 1982,
      "Ĩà¤ªà¤ķà¤¾Ġà¤": 1983,
      "à¤¨à¥ĩĠà¤ª": 1984,
      "Ġà¤ķà¥ĭĠà¤¸": 1985,
      "ingĠaĠ": 1986,
      "ĸà¤¾à¤¸à¤ķà¤°Ġà¤": 1987,
      "ven": 1988,
      "ypic": 1989,
      "Ġther": 1990,
      "à¤®à¥įà¤®": 1991,
      "upiĠ": 1992,
      "ry": 1993,
      "soĠ": 1994,
      "ĩà¤¸à¥įà¤¤à¥ĩà¤®à¤¾à¤²": 1995,
      "esh": 1996,
      "µà¥ĩà¤¬à¤¸à¤¾à¤ĩà¤Ł": 1997,
      "Ġor": 1998,
      ",Ġm": 1999,
      "thisĠ": 2000,
      "kaĠ": 2001,
      "à¤°à¥¤Ġà¤": 2002,
      "Ġà¤ľà¥Īà¤¸": 2003,
      "à¥ĩ!": 2004,
      "Ġbank": 2005,
      "youĠhaveĠ": 2006,
      "à¥ĩĠà¤®à¥ĩà¤Ĥ": 2007,
      "usĠ": 2008,
      "Ġsaf": 2009,
      "¤à¥ĭĠà¤ķ": 2010,
      "īà¤ł": 2011,
      "Ġà¤ķà¤¾à¤«": 2012,
      "ĠcallingĠ": 2013,
      "gre": 2014,
      "Ġchannel": 2015,
      "fil": 2016,
      "à¥ĩà¤¤à¥ĩĠà¤¹à¥Īà¤Ĥ": 2017,
      "à¥ģà¤·à¥įà¤Ł": 2018,
      "Ġà¤ķà¤°à¤¤à¥ĩĠà¤¹à¥Īà¤Ĥà¥¤Ġà¤": 2019,
      "email": 2020,
      "à¤¾,Ġà¤¸": 2021,
      "ĩà¤¸à¤ķ": 2022,
      "à¤¿à¤Ĥà¤¤": 2023,
      "oon": 2024,
      "Ġà¤ķà¥įà¤¯à¥ĭà¤Ĥ": 2025,
      "à¥ĭà¤¶à¤¿à¤¶": 2026,
      "à¥įà¤¥": 2027,
      "linkĠ": 2028,
      "erg": 2029,
      "à¤°à¥įà¤ľ": 2030,
      "à¤¾à¤¨à¥ĩĠà¤": 2031,
      "peopleĠ": 2032,
      "à¤¸à¥įà¤Łà¤®": 2033,
      "à¤¾à¤Ĥà¤Ĺ": 2034,
      "à¥įà¤¤Ġà¤": 2035,
      "reach": 2036,
      "à¥īà¤°à¥įà¤®": 2037,
      "Ġà¤ķà¥ĩĠà¤¬à¤¾à¤°à¥ĩĠà¤®à¥ĩà¤ĤĠà¤": 2038,
      "hasĠ": 2039,
      "prev": 2040,
      "ris": 2041,
      "à¥Ģà¤²": 2042,
      "78": 2043,
      "Ġà¤¹à¥ĪĠà¤¨": 2044,
      "remi": 2045,
      "eĠtrans": 2046,
      "ĸà¥įà¤¯à¤¾à¤²": 2047,
      "à¤¾à¤¨à¤ķà¤¾à¤°": 2048,
      "verifyĠ": 2049,
      "à¥Ģà¤Ł": 2050,
      "Ġtum": 2051,
      "ingĠc": 2052,
      "Ġà¤¤à¤¾à¤ķà¤¿": 2053,
      "ti": 2054,
      "ift": 2055,
      "à¤ķà¥ĩĠà¤²à¤¿à¤ı": 2056,
      "à¤¬à¤¸à¥ĩĠà¤": 2057,
      "acc": 2058,
      "à¥ģà¤·à¥įà¤Łà¤¿": 2059,
      "¨à¤¹à¥Ģà¤Ĥ,Ġà¤": 2060,
      "been": 2061,
      "onlyĠ": 2062,
      "Łà¥įà¤°à¤¾à¤Ĥà¤¸à¤«à¤°": 2063,
      "own": 2064,
      "ľà¤¼à¤°à¥Ĥà¤°à¥ĢĠà¤¹à¥Īà¥¤Ġà¤": 2065,
      "Ġà¤ķà¥ĢĠà¤¸": 2066,
      "pot": 2067,
      "à¥ĩà¤Ĥà¥¤Ġà¤": 2068,
      "ki": 2069,
      "alth": 2070,
      "à¥įà¤°à¥ī": 2071,
      "noon": 2072,
      "à¥ĩĠà¤¹à¥ĭ?": 2073,
      "ition": 2074,
      "edĠwith": 2075,
      "ľà¤¿à¤¸": 2076,
      "guar": 2077,
      "-tim": 2078,
      "officialĠ": 2079,
      "usual": 2080,
      "eng": 2081,
      "à¤¿à¤ľà¤¿à¤Ł": 2082,
      "à¤¿à¤¦": 2083,
      "Ġà¤¸à¥įà¤Ł": 2084,
      "teĠ": 2085,
      "view": 2086,
      "°à¤ĸ": 2087,
      "actĠ": 2088,
      "Ġà¤¹à¥Īà¤Ĥà¥¤Ġà¤": 2089,
      "à¥ĢĠà¤¨": 2090,
      "Ġà¤ıà¤ķà¥įà¤¸": 2091,
      "recisely": 2092,
      "à¤ģ": 2093,
      "amil": 2094,
      ".ĠweĠareĠ": 2095,
      "row": 2096,
      "Ġà¤ªà¥įà¤°à¥ĭ": 2097,
      "à¥ĭà¤ĤĠà¤ķà¥ĢĠà¤": 2098,
      "ignific": 2099,
      "ĠI": 2100,
      "Ĳà¤ª": 2101,
      "µà¤¾à¤ªà¤¸": 2102,
      "Ġà¤¹à¥ĭĠà¤°à¤¹": 2103,
      "yĠtoĠ": 2104,
      "forĠaĠ": 2105,
      "24": 2106,
      "happ": 2107,
      "olution": 2108,
      "Ġafternoon": 2109,
      "à¥ĢĠà¤¹à¥Ĥà¤ģà¥¤Ġà¤": 2110,
      "¤à¥ĭĠà¤¸": 2111,
      "ofĠtheĠ": 2112,
      "back": 2113,
      "couldĠ": 2114,
      "haĠ": 2115,
      "Ġinv": 2116,
      "every": 2117,
      "°à¤ľà¤¿à¤¸à¥įà¤Ł": 2118,
      "à¥Īà¤²": 2119,
      "never": 2120,
      "à¤¤à¤°à¥įà¤ķĠà¤°à¤¹": 2121,
      "à¥ĢĠà¤²à¤Ĺ": 2122,
      "iĠcan": 2123,
      "taĠ": 2124,
      "uns": 2125,
      "Ġà¤Ĩà¤ªà¤ķà¥ĭĠà¤": 2126,
      "fromĠ": 2127,
      "naĠ": 2128,
      "à¥¤\"Ċ": 2129,
      "caut": 2130,
      "national": 2131,
      "ante": 2132,
      "legitimateĠ": 2133,
      "ĠtakeĠ": 2134,
      "goodby": 2135,
      "¬à¤¹à¥ģà¤¤": 2136,
      "Ġà¤¸à¥ĭà¤ļ": 2137,
      "Ġtoo": 2138,
      "Ġà¤¶à¥ģà¤ķà¥įà¤°à¤¿à¤¯à¤¾,Ġà¤": 2139,
      "à¥īà¤ķ": 2140,
      "bet": 2141,
      "iver": 2142,
      "guarante": 2143,
      ".ĠtoĠ": 2144,
      "Ġà¤¨à¤®à¤¸à¥įà¤¤": 2145,
      "à¥Īà¤¸à¥ĩĠà¤¦": 2146,
      "verifi": 2147,
      "onc": 2148,
      "Ġcl": 2149,
      "à¤¾à¥¤Ġà¤®à¥Īà¤Ĥ": 2150,
      "istr": 2151,
      "Ġà¤ķà¥įà¤²": 2152,
      "à¥ĩĠà¤¹à¤®": 2153,
      "à¤¾Ġà¤¹à¥ģà¤Ĩ": 2154,
      "kumar": 2155,
      "à¤¾Ġà¤²": 2156,
      "portĠ": 2157,
      "igital": 2158,
      "-à¤": 2159,
      "uchĠ": 2160,
      "ently": 2161,
      "fromĠtheĠ": 2162,
      "à¤¤à¤¨": 2163,
      "à¤¾à¤ģà¤ļ": 2164,
      "Ġà¤Ĩà¤ľ": 2165,
      "Ġà¤¹à¥ĭà¤Ĺ": 2166,
      "à¤¾Ġà¤¹à¥Ĥà¤ģ?": 2167,
      "à¥ģà¤¡à¤¼": 2168,
      "my": 2169,
      "à¥ģà¤ı": 2170,
      "xx": 2171,
      "ĠdoĠ": 2172,
      "exactlyĠ": 2173,
      "à¥Ģ?": 2174,
      "ĠasĠ": 2175,
      ",Ġpriya": 2176,
      "Ġà¤ªà¥įà¤°à¤¿à¤¯": 2177,
      "ħà¤Ĥà¤¦": 2178,
      "Ġà¤¸à¤¿à¤°à¥įà¤«": 2179,
      "Ġà¤ĩà¤¨": 2180,
      "uthoriz": 2181,
      "Ġà¤ķà¤¾à¤°à¥įà¤¡": 2182,
      "enceĠ": 2183,
      "Ĩà¤Ĺ": 2184,
      "check": 2185,
      "Ġprom": 2186,
      "à¤ıà¤®": 2187,
      "Ġà¤ľà¤¼à¤°à¥Ĥà¤°": 2188,
      "'t": 2189,
      "à¤°à¥įà¤¨": 2190,
      "receivedĠa": 2191,
      "123": 2192,
      "ited": 2193,
      "ľà¤¼à¤°à¤¿à¤ı": 2194,
      "understand": 2195,
      "initi": 2196,
      "à¤¿à¤¨à¤Ł": 2197,
      "flag": 2198,
      "īà¤¨à¥įà¤¹à¥ĭà¤Ĥ": 2199,
      "Ġà¤°à¤ĸà¤¨": 2200,
      "sĠforĠ": 2201,
      "ĩà¤¸à¥ĩĠà¤": 2202,
      "-à¤ķ": 2203,
      "did": 2204,
      "offerĠ": 2205,
      "à¤ıà¤¸": 2206,
      "à¥ģà¤°à¤ķà¥įà¤·à¤¿à¤¤": 2207,
      "finit": 2208,
      "Ġà¤¹à¥Īà¤²à¥ĭ": 2209,
      "à¥ĢĠà¤Ĺ": 2210,
      "emb": 2211,
      "¬à¥ĭà¤²Ġà¤°à¤¹": 2212,
      "ħà¤Ĥ": 2213,
      "ession": 2214,
      "remium": 2215,
      "¯à¤¾à¤¦": 2216,
      "¶à¤ķ": 2217,
      "Ġà¤ľà¤°à¥Ĥà¤°": 2218,
      "à¥ĢĠà¤¸à¥ĩĠà¤": 2219,
      "âĤ¹2": 2220,
      "à¥ĩà¤«": 2221,
      "à¥Īà¤¨": 2222,
      "ated": 2223,
      "yourĠs": 2224,
      "à¤«à¤¼": 2225,
      "sa": 2226,
      "à¤¿à¤ķà¥įà¤°": 2227,
      "à¥ĢĠà¤ķà¥ĭà¤¶à¤¿à¤¶": 2228,
      "Ġà¤ķà¤°Ġà¤°à¤¹à¥ĩĠà¤¹à¥Īà¤Ĥ": 2229,
      "Ġà¤¤à¥ģà¤®à¥įà¤¹à¥ĩà¤Ĥ": 2230,
      "ªà¥Ĥà¤°": 2231,
      "oundĠ": 2232,
      "often": 2233,
      "kin": 2234,
      "other": 2235,
      "à¥ĢĠà¤ķà¥ĩĠà¤": 2236,
      "à¥ĩà¤Ĺà¤¾à¥¤Ġà¤": 2237,
      "jo": 2238,
      "processĠ": 2239,
      "à¥ĥà¤ªà¤¯à¤¾Ġà¤": 2240,
      "Ġà¤®à¥ģà¤Ŀ": 2241,
      "yourĠaccountĠ": 2242,
      "unic": 2243,
      "Ġwh": 2244,
      "onĠtheĠ": 2245,
      "Ġà¤¦à¤¿à¤²": 2246,
      "uresĠ": 2247,
      "à¥ģà¤Ī": 2248,
      "what": 2249,
      "even": 2250,
      "à¤¤à¤¾Ġà¤¹à¥ĪĠà¤ķà¤¿": 2251,
      "excellent": 2252,
      "we": 2253,
      "à¤¸à¤ıà¤®": 2254,
      "ingĠfor": 2255,
      "e'reĠ": 2256,
      "des": 2257,
      "Ġsharma": 2258,
      "itical": 2259,
      "µà¤¾à¤¹,Ġà¤": 2260,
      "à¤¸à¤ıà¤®à¤ıà¤¸": 2261,
      "à¥¤Ċ": 2262,
      "Ġà¤¤à¥ĭ": 2263,
      "encyĠ": 2264,
      "i'veĠ": 2265,
      "à¥Īà¤¡à¤®": 2266,
      "urr": 2267,
      "Ġà¤ļà¤¾à¤°à¥įà¤ľ": 2268,
      "Ġtransaction": 2269,
      "sc": 2270,
      "ate": 2271,
      "Ġaction": 2272,
      "concern": 2273,
      "ĠaĠsmall": 2274,
      "Ġadv": 2275,
      "à¥ĢĠà¤¹à¥Ī?": 2276,
      "mustĠ": 2277,
      "à¥ĭà¤°": 2278,
      "Ġprecisely": 2279,
      "à¤¾à¤¨à¤¾Ġà¤": 2280,
      "Ġà¤ķà¥ĩĠà¤ľà¤¼à¤°à¤¿à¤ı": 2281,
      "willĠ": 2282,
      "¯à¤¾Ġà¤«à¤¿à¤°Ġà¤": 2283,
      "noĠ": 2284,
      "Ġph": 2285,
      "harg": 2286,
      "asĠ": 2287,
      "invest": 2288,
      "Ġtalk": 2289,
      "inc": 2290,
      "Ġshar": 2291,
      "à¤¬à¤°": 2292,
      "goodĠafternoon": 2293,
      "Ġaccess": 2294,
      "viaĠ": 2295,
      "Ġà¤ħà¤ªà¤¨": 2296,
      ",Ġà¤ķ": 2297,
      "Ġà¤¤à¤ķ": 2298,
      "yeĠ": 2299,
      "ensit": 2300,
      "à¤¾à¤«à¤¼": 2301,
      "¯à¥ĩĠà¤ķ": 2302,
      ",Ġà¤²à¥ĩà¤ķà¤¿à¤¨": 2303,
      "¯à¥ĩĠà¤¬": 2304,
      "à¤¾Ġà¤¥à¤¾à¥¤": 2305,
      "Ġà¤Ĩà¤ªà¤ķà¥ĩĠà¤": 2306,
      "Ġsak": 2307,
      "Ķà¤°Ġà¤¸": 2308,
      "webs": 2309,
      "refer": 2310,
      "à¤¾à¤®à¤¾à¤¨": 2311,
      "received": 2312,
      "issu": 2313,
      "ĠaĠm": 2314,
      "à¥Īà¤Ĥà¤¡": 2315,
      "Ġdirect": 2316,
      "iesĠ": 2317,
      "à¥ģà¤¶": 2318,
      "ult": 2319,
      "-timeĠ": 2320,
      "veryĠs": 2321,
      "ĠtoĠtheĠ": 2322,
      "ıà¤ķĠà¤®à¥Īà¤¸à¥ĩà¤ľ": 2323,
      "à¥Īà¤¨à¤²": 2324,
      "bileĠ": 2325,
      "understandĠ": 2326,
      "à¤ªà¥ĭà¤°à¥įà¤Ł": 2327,
      "Ġinter": 2328,
      "Ĩà¤Ī": 2329,
      "à¤µà¤¾à¤²": 2330,
      "Ġtypic": 2331,
      "à¥Īà¤¯": 2332,
      "Ġsup": 2333,
      "Ġà¤¦à¤¿à¤ĸ": 2334,
      "itâĢĻs": 2335,
      "à¤Ĺà¤¹": 2336,
      "istĠ": 2337,
      "ıà¤ķĠà¤¬": 2338,
      "âĢĵ": 2339,
      "confirmĠ": 2340,
      "à¤§à¤¿à¤ķ": 2341,
      ".Ġwhat": 2342,
      "ret": 2343,
      "Ġà¤¸à¥įà¤ķà¥Īà¤®": 2344,
      "à¤¾Ġà¤ķà¥įà¤¯": 2345,
      "Ġavo": 2346,
      "goodĠday": 2347,
      "ĠS": 2348,
      "à¤¿à¤ľà¤¼": 2349,
      "uss": 2350,
      "45": 2351,
      "Ġà¤ķà¤¿à¤¤": 2352,
      "main": 2353,
      "ĳà¤«à¤¿à¤¶à¤¿à¤¯à¤²": 2354,
      "Ġpayment": 2355,
      "īà¤¸à¤ķ": 2356,
      ".ĠthankĠyouĠ": 2357,
      "«à¥Ģà¤¸": 2358,
      "oryĠ": 2359,
      "ĠthoseĠ": 2360,
      "Ġà¤ªà¤ķà¥įà¤ķ": 2361,
      "mein": 2362,
      "-à¤¸": 2363,
      "rĠ": 2364,
      "Ġà¤ľà¤¿à¤¸": 2365,
      "Ġà¤łà¥Ģà¤ķĠà¤¹à¥Ī,Ġà¤": 2366,
      "ustomer": 2367,
      "important": 2368,
      ".Ġthank": 2369,
      "reci": 2370,
      "feel": 2371,
      "à¤¡à¥ĩà¤Ł": 2372,
      "willĠbeĠ": 2373,
      "expir": 2374,
      "ures": 2375,
      "youĠs": 2376,
      "à¥¤Ġà¤¹à¤®à¤¾à¤°": 2377,
      "à¤ļà¤¸à¥įà¤ª": 2378,
      "Ġmr.Ġ": 2379,
      ".ĠĠokay": 2380,
      "rang": 2381,
      "ĩà¤¸à¤¸à¥ĩĠà¤": 2382,
      "Ġà¤ķà¥ĩĠà¤²à¤¿à¤ıĠà¤ıà¤ķ": 2383,
      "hap": 2384,
      "à¤¿à¤ķà¤²": 2385,
      "via": 2386,
      "Ġà¤ħà¤¨": 2387,
      "able": 2388,
      "Ĩà¤ªà¤ķà¤¾Ġà¤¦à¤¿à¤¨": 2389,
      "®à¥Īà¤¸à¥ĩà¤ľ": 2390,
      "Ġà¤¸à¥ĩĠà¤¸": 2391,
      "à¤¾à¥¤Ġà¤¸": 2392,
      "¥à¥ĭà¤¡à¤¼à¤¾Ġà¤": 2393,
      "Ġminut": 2394,
      "à¥ĩà¤Ĥà¤¶à¤¿à¤¯": 2395,
      "fic": 2396,
      "ferĠ": 2397,
      "enef": 2398,
      "âĤ¹1": 2399,
      "iĠse": 2400,
      "proce": 2401,
      "toĠ": 2402,
      "gram": 2403,
      "ble": 2404,
      "helloĠ": 2405,
      "rightĠ": 2406,
      "didĠ": 2407,
      ".Ċ": 2408,
      "ning": 2409,
      "Ġappro": 2410,
      "Ġà¤ĺà¤Ĥà¤Ł": 2411,
      "wonder": 2412,
      "¨à¤¾à¤®": 2413,
      "Ġà¤®à¤¾à¤ģà¤Ĺ": 2414,
      "à¥ĢĠà¤¬à¤¾à¤¤Ġà¤": 2415,
      "hip": 2416,
      "ĠtheirĠ": 2417,
      "interest": 2418,
      "elcom": 2419,
      "à¥ĩà¤¨à¥ĩĠà¤ķà¥ĩĠà¤²à¤¿à¤ı": 2420,
      "Ġà¤¬à¤¿à¤²à¥įà¤ķà¥ģà¤²Ġà¤łà¥Ģà¤ķ": 2421,
      "à¤¿à¤¸à¥įà¤ķ": 2422,
      "opportunity": 2423,
      "Ġà¤ķà¥įà¤¯à¥ĭà¤Ĥà¤ķà¤¿": 2424,
      "ies": 2425,
      "Ġpe": 2426,
      "Ġà¤ķà¤°Ġà¤¦à¤¿à¤¯": 2427,
      "à¥įà¤°à¥ĭà¤¸à¥ĩà¤¸à¤¿à¤Ĥà¤Ĺ": 2428,
      "à¤²à¤¬": 2429,
      "financial": 2430,
      "sid": 2431,
      "à¤°Ġ": 2432,
      "MS": 2433,
      "¬à¤¿à¤¨": 2434,
      "Ġra": 2435,
      "involv": 2436,
      "okĠ": 2437,
      "forĠs": 2438,
      "urn": 2439,
      "ĠthatĠmak": 2440,
      "pr": 2441,
      "e-": 2442,
      "gay": 2443,
      "īà¤®à¥įà¤®": 2444,
      "à¥Ģà¤§à¥ĩĠà¤": 2445,
      "y,Ġ": 2446,
      "yourĠd": 2447,
      "à¤¾à¤µà¤§à¤¾à¤¨Ġà¤°à¤¹": 2448,
      "īà¤®à¥įà¤®à¥Ģà¤¦": 2449,
      "à¤¿à¤¡": 2450,
      "Ġdoing": 2451,
      "ention": 2452,
      "lock": 2453,
      "à¥ĢĠà¤¹à¥ĭà¤Ĺ": 2454,
      ":Ġ": 2455,
      "ah": 2456,
      "lob": 2457,
      "lotĠ": 2458,
      "charg": 2459,
      "ireĠ": 2460,
      "ľà¤¾à¤¨à¤ķà¤¾à¤°à¥ĢĠà¤": 2461,
      "?ĠĠh": 2462,
      "Ġà¤ľà¤¾à¤ı": 2463,
      "Ġup": 2464,
      "reditĠ": 2465,
      "Ġthere": 2466,
      "à¤Ĥà¤¤": 2467,
      "itiz": 2468,
      "likeĠth": 2469,
      "ifĠyou": 2470,
      "Ġà¤¹à¥Īà¤²à¥ĭ,Ġà¤": 2471,
      "esit": 2472,
      "Ġhello,Ġ": 2473,
      "à¥ĩà¤Ĥà¤Ĺà¥ĩà¥¤Ġà¤": 2474,
      "promis": 2475,
      "Ġà¤ħà¤Ĺà¤°Ġà¤": 2476,
      "ed,Ġ": 2477,
      "entlyĠ": 2478,
      "à¥īà¤Ł": 2479,
      "Ġsir": 2480,
      "Ġà¤®à¤¿à¤¨à¤Ł": 2481,
      "Ġà¤ķà¤°à¤ķ": 2482,
      "98": 2483,
      "à¤ľà¤¹": 2484,
      "information": 2485,
      "à¤ķà¥įà¤²": 2486,
      "ersonal": 2487,
      "µà¤¹": 2488,
      "à¤¾à¤¨à¤¦": 2489,
      "ementĠ": 2490,
      "Ġhour": 2491,
      "Ġà¤ķà¤°à¤¨à¤¾Ġà¤¹à¥ĭà¤Ĺ": 2492,
      "?ĠwhatĠ": 2493,
      "imp": 2494,
      "à¤ķà¥įà¤¸à¤°Ġà¤": 2495,
      "ħà¤®": 2496,
      "à¥¤Ġà¤¯à¤¹": 2497,
      "ark": 2498,
      "Ġmone": 2499,
      "Ġtoh": 2500,
      "hai.": 2501,
      "eĠandĠ": 2502,
      "Ġà¤¯à¥ĩĠà¤¸": 2503,
      "unsolic": 2504,
      "à¤¾Ġà¤°": 2505,
      "à¥ĩà¤µ": 2506,
      "à¥ĢĠà¤ķà¥įà¤¯": 2507,
      "hand": 2508,
      "Ġis": 2509,
      "ĠseĠ": 2510,
      "¤à¤°à¤«": 2511,
      "Ġà¤ľà¤¾à¤¨à¤ķà¤¾à¤°à¥ĢĠà¤": 2512,
      "!Ġà¤®à¥Īà¤Ĥ": 2513,
      "Ġhow": 2514,
      "ord": 2515,
      "ingĠabout": 2516,
      "à¥ĢĠà¤ªà¥įà¤°": 2517,
      "payĠ": 2518,
      "à¤ķà¥įà¤¶à¤¨": 2519,
      "à¥Īà¤ķà¥ĩà¤ľ": 2520,
      "à¤¾à¤ľà¥ĩà¤¶": 2521,
      "à¤¾,": 2522,
      "à¤°à¥ĩà¤Ĥà¤¸": 2523,
      "à¥ĢĠà¤¨à¤¹à¥Ģà¤Ĥ": 2524,
      "à¤ļà¥įà¤ļ": 2525,
      "eĠthisĠ": 2526,
      "à¤¿à¤ļ": 2527,
      "unusual": 2528,
      "Ġà¤¸à¥ĩĠà¤ª": 2529,
      "Ġsecure": 2530,
      "duct": 2531,
      "Ġà¤¹à¤ľà¤¼": 2532,
      "à¥Ģà¤¤": 2533,
      "upfrontĠ": 2534,
      "atter": 2535,
      "Ġadd": 2536,
      "à¥ĢĠà¤ķà¥ĩĠà¤²à¤¿à¤ı": 2537,
      "fort": 2538,
      "à¤¦à¤¦Ġà¤ķà¤°Ġà¤¸à¤ķà¤¤": 2539,
      "which": 2540,
      "?ĠthatĠ": 2541,
      "à¥ĩà¤²à¥įà¤": 2542,
      "eĠscam": 2543,
      "iĠsaw": 2544,
      "ªà¤°Ġà¤": 2545,
      "Īà¤®": 2546,
      "à¤²à¤¿à¤ı": 2547,
      "à¤¾,Ġà¤¤à¥ĭĠà¤": 2548,
      "Ġà¤ħà¤ªà¤¨à¥ĩĠà¤": 2549,
      "proced": 2550,
      "kindĠ": 2551,
      "den": 2552,
      "registr": 2553,
      "Ġactu": 2554,
      "guid": 2555,
      ",ĠthankĠyou": 2556,
      "Ġà¤¸à¤ķ": 2557,
      "ĠsomeoneĠ": 2558,
      "fect": 2559,
      "ooper": 2560,
      "ĠtooĠ": 2561,
      "dec": 2562,
      "ªà¤¹à¤²": 2563,
      "à¤¤à¤¾à¤¨": 2564,
      "à¥ĩà¤¦": 2565,
      "à¤¾à¤°à¥įà¤Łà¤®à¥ĩà¤Ĥà¤Ł": 2566,
      "à¥įà¤¨": 2567,
      "ingĠthisĠ": 2568,
      "ingĠwith": 2569,
      "ĠareĠyouĠdoing": 2570,
      "Ġà¤¹à¤®à¤¾à¤°à¥ĢĠà¤": 2571,
      "Ġà¤¦à¤¿à¤¯": 2572,
      "any": 2573,
      "à¤¾Ġà¤µ": 2574,
      "à¤ķà¥ĩĠà¤¬à¤¾à¤°à¥ĩĠà¤®à¥ĩà¤Ĥ": 2575,
      "genuineĠ": 2576,
      "hu": 2577,
      "à¤¾à¤ľà¤¼": 2578,
      "ĠprocessĠ": 2579,
      "yourself": 2580,
      "abl": 2581,
      "Ġtra": 2582,
      "Ġtech": 2583,
      "ingĠfe": 2584,
      "à¥ĩà¤¹à¤¤à¤°": 2585,
      "og": 2586,
      "app": 2587,
      "eĠofĠ": 2588,
      "Ġspeak": 2589,
      "Ġinform": 2590,
      "whoĠ": 2591,
      "rs.Ġ": 2592,
      "à¥ĭà¤Ĥà¤Ĺ": 2593,
      "à¥ĩĠà¤¬à¤¢à¤¼": 2594,
      "Ĩà¤®": 2595,
      "à¤¾Ġà¤¹à¥Ĥà¤ģ,Ġà¤": 2596,
      "Ġà¤«à¤¼": 2597,
      "à¤°Ġà¤¸à¥ĩĠà¤": 2598,
      "Ġsecurity": 2599,
      "rativeĠ": 2600,
      "about": 2601,
      "urgency": 2602,
      "Ġpriya": 2603,
      "much": 2604,
      "à¥ĢĠà¤ķà¥ĭĠà¤": 2605,
      "details": 2606,
      "Ġà¤¹à¥ĭĠà¤¸à¤ķà¤¤": 2607,
      "à¤¾Ġà¤ķà¥ģà¤Ľ": 2608,
      "ĠsoĠ": 2609,
      "careful": 2610,
      "à¤¾à¤ĩà¤²": 2611,
      "Ġadvic": 2612,
      "Ġà¤¹à¤®à¥ĩà¤Ĥ": 2613,
      "welcom": 2614,
      "ickĠ": 2615,
      "expect": 2616,
      "minist": 2617,
      "vig": 2618,
      ".ĠmyĠ": 2619,
      "à¤ľà¥ĩà¤Ĥà¤¸": 2620,
      "à¥ĭà¤ĤĠà¤ķà¥ĩĠà¤": 2621,
      "Ġà¤¸à¥ĩĠà¤ľ": 2622,
      "ıà¤ķà¥įà¤¸à¤ª": 2623,
      "Ġà¤ķà¤°Ġà¤°à¤¹à¥ĩĠà¤¹à¥Īà¤Ĥà¥¤Ġà¤": 2624,
      "valu": 2625,
      "¤à¥Ĥ": 2626,
      "pend": 2627,
      ".ĠĠyes,Ġ": 2628,
      "activ": 2629,
      "provideĠ": 2630,
      "Ġah": 2631,
      "ocol": 2632,
      "à¥Ĥà¤¸à¤¿à¤µ": 2633,
      "à¤°à¤ķà¤¾à¤°à¥ĢĠà¤": 2634,
      "beĠs": 2635,
      "¬à¤¿à¤²à¥įà¤ķà¥ģà¤²Ġà¤": 2636,
      "ĸà¥ģà¤¦": 2637,
      "Ġà¤Ķà¤°Ġà¤ķ": 2638,
      "Ġtactic": 2639,
      "Ġà¤¹à¤¾à¤²": 2640,
      "youĠm": 2641,
      "ıà¤ķà¥įà¤Łà¤¿à¤µ": 2642,
      "let": 2643,
      "à¤¾Ġà¤¹à¤®": 2644,
      "hai,Ġ": 2645,
      "īà¤¨à¥įà¤¹à¥ĩà¤Ĥ": 2646,
      "so": 2647,
      "stĠ": 2648,
      "lear": 2649,
      "à¤¾à¤¤à¥ĩĠà¤¹à¥Īà¤Ĥà¥¤Ġà¤": 2650,
      "XX": 2651,
      "av": 2652,
      "à¤¿à¤µà¥ĩà¤¶": 2653,
      "¯à¥ĩĠà¤ª": 2654,
      "isĠthereĠ": 2655,
      "ibleĠ": 2656,
      "oreĠ": 2657,
      "etim": 2658,
      "ribut": 2659,
      "Ġinvest": 2660,
      "has": 2661,
      "à¥ĩĠà¤¹à¥Ī": 2662,
      "vert": 2663,
      "Ġà¤ħà¤²": 2664,
      "ĩà¤¸à¤¸": 2665,
      "kul": 2666,
      "¤à¥ģà¤°à¤Ĥà¤¤": 2667,
      "à¤µà¤¿à¤¦": 2668,
      "à¥Ģà¤¡à¤¿à¤¯": 2669,
      "Ġà¤ļà¥Ģà¤ľà¤¼": 2670,
      "ensitiveĠ": 2671,
      "du": 2672,
      "ľà¥Īà¤¸": 2673,
      "à¥ģà¤°à¥ģà¤Ĩ": 2674,
      "Ġà¤¹à¥ĭĠà¤ľà¤¾à¤ı": 2675,
      "à¤ķà¥Ģà¤¨": 2676,
      "ĠthinkĠ": 2677,
      "789": 2678,
      "¬à¥Īà¤Ĥà¤ķ": 2679,
      "needĠ": 2680,
      "rajesh": 2681,
      "à¤ķà¥įà¤²à¥Ĥà¤¸à¤¿à¤µ": 2682,
      "Ġbe": 2683,
      "ĠwillĠ": 2684,
      "à¥ĩĠà¤°": 2685,
      "à¥ĩĠà¤ķà¥ģà¤Ľ": 2686,
      "à¥īà¤ª": 2687,
      "checkĠ": 2688,
      "à¤°Ġà¤®": 2689,
      "ĠcanĠ": 2690,
      "¤à¥ģà¤®à¥įà¤¹à¥ĩà¤ĤĠà¤": 2691,
      "fur": 2692,
      "list": 2693,
      "à¤²à¤¤": 2694,
      "ĠandĠtheĠ": 2695,
      "ĠaboutĠs": 2696,
      "uj": 2697,
      "«à¤¾à¤ĩà¤¨": 2698,
      "Ġà¤¸à¤°à¥įà¤µà¤¿à¤¸": 2699,
      "Ġà¤ªà¥įà¤²": 2700,
      "yourĠf": 2701,
      "à¤¿à¤ķà¥įà¤ķ": 2702,
      "à¥Įà¤¨Ġà¤¬à¥ĭà¤²Ġà¤°à¤¹": 2703,
      "happen": 2704,
      "?Ġthat'sĠ": 2705,
      "Ġà¤¬à¥Īà¤Ĥà¤ķ": 2706,
      "Ġkar": 2707,
      "Ĩà¤ı": 2708,
      "à¥Ģà¤°": 2709,
      "à¤¾à¤Ł": 2710,
      "reallyĠ": 2711,
      "à¥ĩà¤¯à¤°": 2712,
      "§à¤¨à¥įà¤¯à¤µà¤¾à¤¦à¥¤Ġà¤": 2713,
      "ıà¤¡": 2714,
      "ľà¤¾à¤¨": 2715,
      "real": 2716,
      "ackag": 2717,
      "Ġà¤¹à¥Īà¥¤Ġà¤®à¥Īà¤Ĥ": 2718,
      "oic": 2719,
      "à¤°Ġà¤¹à¥Ī": 2720,
      "Ġà¤¬à¤¾à¤°à¥ĩĠà¤®à¥ĩà¤Ĥ": 2721,
      ",Ġsir.Ġ": 2722,
      "book": 2723,
      "Ġthought": 2724,
      "à¤¹à¤ļ": 2725,
      "ĠtoĠensureĠ": 2726,
      "Ġdel": 2727,
      "aboutĠ": 2728,
      "à¤¤à¤¾Ġà¤¹à¥Ī,Ġà¤": 2729,
      "Ġapplic": 2730,
      "usually": 2731,
      "fakeĠ": 2732,
      "ĠaĠst": 2733,
      "Ġcharg": 2734,
      "à¤¿à¤¶à¥įà¤": 2735,
      "Ġà¤¤à¥ĭĠà¤¬à¤¹à¥ģà¤¤Ġà¤": 2736,
      "à¥įà¤°à¥ĩà¤¶à¤¨": 2737,
      "ĠtoĠst": 2738,
      "à¤µà¤¿": 2739,
      "Ġtrust": 2740,
      "ĠID": 2741,
      "¬à¤¿à¤²à¤ķà¥ģà¤²": 2742,
      "à¤¾Ġà¤¸à¤ķà¤¤": 2743,
      "¤à¥ģà¤®à¤¨à¥ĩĠà¤": 2744,
      "à¤Ĥà¤Ńà¥Ģ": 2745,
      "whichĠ": 2746,
      "ohĠ": 2747,
      "à¤¾à¤ĩà¤²Ġà¤": 2748,
      "eĠsec": 2749,
      ",Ġmr.Ġsharma": 2750,
      "directly": 2751,
      "moreĠ": 2752,
      "chan": 2753,
      ",Ġor": 2754,
      "ľà¤¼à¤°à¥Ĥà¤°à¥ĢĠà¤¹à¥Ī": 2755,
      "ministrativeĠ": 2756,
      "itial": 2757,
      "à¤¤à¥įà¤®": 2758,
      "astĠ": 2759,
      "utom": 2760,
      "à¤¾Ġà¤ķà¤°": 2761,
      "à¥ĭà¤ĤĠà¤ķà¤¾Ġà¤": 2762,
      "Ġprovid": 2763,
      "hot": 2764,
      "à¥ĩà¤Ĥà¤¡": 2765,
      "rah": 2766,
      "à¤¿à¤ªà¤¾à¤°à¥įà¤Łà¤®à¥ĩà¤Ĥà¤Ł": 2767,
      "it'sĠaĠ": 2768,
      "à¥ģà¤Ĺ": 2769,
      "Ġà¤®à¤¦à¤¦": 2770,
      "Ġper": 2771,
      "à¤¨à¥ĩĠà¤®à¥ĩà¤Ĥ": 2772,
      "uppos": 2773,
      "raud": 2774,
      "Ġà¤Ĩà¤®à¤¤à¥Įà¤°Ġà¤ª": 2775,
      "ye": 2776,
      "¨à¤®à¤¸à¥įà¤¤": 2777,
      "à¤¾Ġà¤¤à¤°à¥Ģà¤ķ": 2778,
      "ision": 2779,
      "à¥įà¤°à¤¾à¤®": 2780,
      "à¥ĩĠà¤¥": 2781,
      "ĠaĠspecial": 2782,
      "ĠwebsiteĠ": 2783,
      "ins": 2784,
      "really": 2785,
      "ular": 2786,
      "urgent": 2787,
      "à¤Ĥà¤¡à¤¿à¤¯": 2788,
      "à¤¾Ġà¤ķà¥ĩĠà¤²à¤¿à¤ı": 2789,
      "âĤ¹4": 2790,
      "Ġà¤®à¥Īà¤Ĥà¤¨à¥ĩĠà¤": 2791,
      "Ġalright,Ġ": 2792,
      "à¥¤Ġà¤¹à¤¾à¤ģ": 2793,
      "ometim": 2794,
      "Ġà¤°à¥ĭ": 2795,
      "reat": 2796,
      "à¥ĩĠà¤ķà¤¾à¤®": 2797,
      "à¥Īà¤¸à¤²": 2798,
      "a,Ġ": 2799,
      "e?ĠĠ": 2800,
      "à¤Ĥà¤ķ": 2801,
      "lookĠ": 2802,
      ".ĠwhoĠ": 2803,
      "unsolicitedĠ": 2804,
      "Ĩà¤¸à¤¾à¤¨": 2805,
      "Ġà¤°à¤¹à¤¾Ġà¤¹à¥Ī": 2806,
      "à¥ĢĠà¤¹à¥Īà¤Ĥà¥¤Ġà¤": 2807,
      "beforeĠ": 2808,
      "r.": 2809,
      "Ġà¤ļà¤¾à¤¹à¤¿à¤ı": 2810,
      "à¥ĭà¤ĤĠà¤®à¥ĩà¤Ĥ": 2811,
      "Ġwell": 2812,
      "à¥Īà¤Ĥà¤¡à¤°à¥įà¤¡": 2813,
      "hum": 2814,
      "ett": 2815,
      "Ġà¤ķà¤°à¤¨à¥ĩĠà¤µà¤¾à¤²": 2816,
      "Ġà¤°à¥ģà¤ªà¤¯à¥ĩĠà¤ķ": 2817,
      "Ġconfirmation": 2818,
      "à¥ĩà¤¬": 2819,
      "à¤¬à¤¸": 2820,
      "à¤¾à¥¤Ġà¤¯à¤¹": 2821,
      "ense.Ġ": 2822,
      "à¤¾à¤°à¤Ĥà¤Ł": 2823,
      "à¥ĩà¤¶à¤¾à¤¨": 2824,
      "à¥ģà¤ķà¤¿à¤Ĥà¤Ĺ": 2825,
      "à¤¾à¤¯à¤¦à¤¾Ġà¤": 2826,
      "youĠcan": 2827,
      "jay": 2828,
      "pon": 2829,
      "Ġà¤ķà¥ĭĠà¤ķ": 2830,
      "itu": 2831,
      "à¤ļà¤¾à¤¨à¤ķ": 2832,
      "onceĠ": 2833,
      "ªà¥įà¤²": 2834,
      "elect": 2835,
      "Ġà¤¹à¥Ĥà¤Ĥ": 2836,
      "iftĠ": 2837,
      "ledĠ": 2838,
      "nahiĠ": 2839,
      "Ġà¤¹à¥ĩà¤²à¥ĭ": 2840,
      "76": 2841,
      "rip": 2842,
      "Ġà¤ķà¥ĢĠà¤¡à¤¿à¤Łà¥ĩà¤²à¥įà¤¸": 2843,
      "à¥¤Ġ\"": 2844,
      "à¥įà¤°à¥ĩà¤¡à¤¿à¤Ł": 2845,
      "?Ġà¤®à¥ģà¤Ŀà¥ĩĠà¤": 2846,
      "à¤¾à¤ĩà¤ľà¤¼": 2847,
      "few": 2848,
      "partment": 2849,
      "haveĠa": 2850,
      "dateĠ": 2851,
      "kram": 2852,
      "mayĠ": 2853,
      "portal": 2854,
      "Ġà¤ļà¥ĩà¤ķ": 2855,
      "à¥ĭà¤°à¥įà¤Łà¤²": 2856,
      "?ĠandĠ": 2857,
      "ary": 2858,
      "Ġà¤ķà¥ĩĠà¤¬à¤¾à¤¦": 2859,
      "Ġamount": 2860,
      "à¤¾à¤¨à¤¦à¤¾à¤°Ġà¤": 2861,
      "vigil": 2862,
      "s,": 2863,
      "officialĠchannel": 2864,
      "à¥ĩĠ'": 2865,
      "ħà¤Ĺà¤²": 2866,
      "à¥ĩĠà¤®à¥Īà¤¸à¥ĩà¤ľ": 2867,
      "à¥ĢĠà¤ľà¤¾à¤¨à¤ķà¤¾à¤°à¥ĢĠà¤": 2868,
      "à¥įà¤ªà¥ĩà¤¶": 2869,
      "ħà¤°à¥ĩ,Ġà¤": 2870,
      "best": 2871,
      "glob": 2872,
      "hour": 2873,
      "à¥įà¤¯à¥Ĥà¤": 2874,
      "Ġà¤ĳ": 2875,
      "refund": 2876,
      "youĠtoĠ": 2877,
      "à¥ģà¤Ĺà¤¤à¤¾à¤¨": 2878,
      "à¥Īà¤ķà¥įà¤¶à¤¨": 2879,
      "ruc": 2880,
      "forĠthisĠ": 2881,
      "i.Ġ": 2882,
      "à¥Īà¤ķà¥įà¤¸": 2883,
      "Ġagain": 2884,
      "ħà¤Ĺà¤°Ġà¤ķà¥ĭà¤Ī": 2885,
      "giv": 2886,
      "pass": 2887,
      "yeh": 2888,
      "®à¤¦à¤¦": 2889,
      "Ġà¤ªà¥Ĥà¤Ľ": 2890,
      "itĠwasĠ": 2891,
      "dear": 2892,
      "à¥Ĥà¤¸à¤°": 2893,
      "expiryĠ": 2894,
      "Ġcert": 2895,
      "letĠ": 2896,
      "à¥ģà¤®à¤¾à¤°": 2897,
      "à¥ĩà¤ķà¥įà¤¶à¤¨": 2898,
      "Ġà¤ªà¤°Ġà¤ķà¥įà¤²à¤¿à¤ķ": 2899,
      "forĠimmediateĠ": 2900,
      "apoor": 2901,
      "à¥Īà¤ķà¥įà¤Ł": 2902,
      "²à¥ĭà¤Ĺà¥ĭà¤ĤĠà¤ķà¥ĭĠà¤": 2903,
      "cover": 2904,
      "à¤¾Ġà¤¯": 2905,
      "miss": 2906,
      "ĠUPI": 2907,
      "łà¤Ĺ": 2908,
      "à¤¾Ġà¤ıà¤ķ": 2909,
      "sĠwith": 2910,
      "à¤¤à¥ĢĠà¤¹à¥Īà¥¤Ġà¤": 2911,
      "eĠthatĠ": 2912,
      "à¤¾Ġà¤ľà¤¾à¤ıà¤Ĺ": 2913,
      "famil": 2914,
      "rep": 2915,
      "à¤¬à¤¾à¤ľ": 2916,
      "empt": 2917,
      ".ĠandĠ": 2918,
      "à¤¾à¤°à¥ĩĠà¤": 2919,
      "Ġà¤ħà¤°à¥ĩ,Ġà¤": 2920,
      "ĠmessageĠ": 2921,
      "iqu": 2922,
      "iâĢĻ": 2923,
      "Ĩà¤ĸ": 2924,
      "isĠtheĠ": 2925,
      "à¥ģà¤Ń": 2926,
      "omethingĠ": 2927,
      "Ĩà¤®à¤¤à¥Įà¤°Ġà¤ªà¤°Ġà¤": 2928,
      "Ńà¥ĢĠà¤ķ": 2929,
      "onth": 2930,
      "otp": 2931,
      "po": 2932,
      "à¤¿à¤²à¥Ģà¤µ": 2933,
      "vikram": 2934,
      "ĠanythingĠ": 2935,
      "à¤¾à¤¯à¤¦à¤¾Ġà¤īà¤ł": 2936,
      "ĩà¤Ĥà¤Ł": 2937,
      "usin": 2938,
      "Ġà¤¤à¥Įà¤°Ġà¤ª": 2939,
      "ĩà¤¸à¤²à¤¿à¤ı": 2940,
      "Ġà¤ķà¤°Ġà¤¸à¤ķ": 2941,
      "phoneĠ": 2942,
      "haveĠaĠgoodĠday": 2943,
      "Ġfinancial": 2944,
      "gra": 2945,
      "à¥ĢĠà¤ıà¤ķ": 2946,
      "haven": 2947,
      "updat": 2948,
      "Ġconcern": 2949,
      "request": 2950,
      "ignificantĠ": 2951,
      "à¤§à¤¿à¤ķà¤¾à¤°": 2952,
      "chat": 2953,
      "earli": 2954,
      "quickly": 2955,
      "à¤¹à¤ļà¤¾à¤¨": 2956,
      "channel": 2957,
      "-à¤ª": 2958,
      "ĠatĠ": 2959,
      "dem": 2960,
      "Ġdat": 2961,
      "ľà¤¼à¤°à¥Ĥà¤°à¤¤": 2962,
      "¶à¥ģà¤ķà¥įà¤°à¤¿à¤¯à¤¾à¥¤Ġà¤": 2963,
      "?Ġà¤¹à¤¾à¤ģ,Ġà¤": 2964,
      "ıà¤¸à¤ıà¤®à¤ıà¤¸": 2965,
      "à¤¾Ġà¤¡": 2966,
      "Ġcod": 2967,
      "yourĠm": 2968,
      "Ġà¤ķà¥įà¤¯à¤¾?": 2969,
      "Ġpar": 2970,
      "ravi": 2971,
      "ıà¤ķĠà¤Ľà¥ĭà¤Łà¤¾Ġà¤¸": 2972,
      "limited": 2973,
      "s?Ġ": 2974,
      "edĠto": 2975,
      "omin": 2976,
      "à¥īà¤¨": 2977,
      "Ĳà¤¸à¥ĩĠà¤": 2978,
      "à¤¾Ġà¤¹à¥Ĥà¤Ĥà¥¤Ġà¤": 2979,
      "itt": 2980,
      "à¤¾Ġà¤ķà¤°Ġà¤": 2981,
      "quest": 2982,
      "Ġà¤ķà¤°à¤¨à¥ĩĠà¤ķà¥ĩĠà¤²à¤¿à¤ıĠà¤¶à¥ģà¤ķà¥įà¤°à¤¿à¤¯à¤¾à¥¤Ġà¤": 2983,
      "vertis": 2984,
      "ifĠiĠ": 2985,
      "à¥ĢĠà¤ļà¥Ģà¤ľà¤¼": 2986,
      "à¥ĢĠà¤¥à¥Ģà¥¤Ġà¤": 2987,
      "Ġà¤¬à¤¹à¥ģà¤¤Ġà¤¹à¥ĢĠà¤": 2988,
      "à¤¿à¤²à¥Ģà¤µà¤°": 2989,
      ".ĠitâĢĻsĠ": 2990,
      "lead": 2991,
      "howĠm": 2992,
      "Ġdisc": 2993,
      "india": 2994,
      "à¥ĢĠà¤«": 2995,
      "Ġà¤¬à¤¢à¤¼à¤¿à¤¯": 2996,
      "ĠdoingĠ": 2997,
      "nomin": 2998,
      "ankĠ": 2999,
      ".ĠĠexactly": 3000,
      "immediatelyĠ": 3001,
      "à¤¿à¤ķà¥įà¤¯à¥ĭà¤°Ġà¤": 3002,
      "better": 3003,
      "à¤Ĥà¤¤à¤ľà¤¼": 3004,
      "s'": 3005,
      "thod": 3006,
      "emerg": 3007,
      "notification": 3008,
      "require": 3009,
      "ĠdirectĠ": 3010,
      "cor": 3011,
      "ĠsomeĠ": 3012,
      "istic": 3013,
      "bec": 3014,
      "à¤¤à¤²à¤¬": 3015,
      "Ġà¤¹à¥ĩà¤²à¥ĭĠà¤": 3016,
      "?ĠthatĠsoundsĠ": 3017,
      "a.": 3018,
      "ļà¤²Ġà¤°à¤¹": 3019,
      "Ġà¤¹à¤®à¤¾à¤°à¥ĩĠà¤¸": 3020,
      "à¤¾Ġà¤¨à¤¾à¤®": 3021,
      "ĠserviceĠ": 3022,
      "madam": 3023,
      "®à¥Īà¤¡à¤®": 3024,
      "Ġwor": 3025,
      "à¤¾,Ġà¤Ķà¤°Ġà¤": 3026,
      "¤à¥ģà¤®à¥įà¤¹à¤¾à¤°à¥ĢĠà¤": 3027,
      "fession": 3028,
      "it?Ġ": 3029,
      "Ġà¤ķà¥ĩĠà¤ª": 3030,
      ".ĠĠiĠ": 3031,
      "à¥ĩĠà¤ªà¥įà¤°à¤¿à¤¯": 3032,
      "à¤¾à¤®à¤¿à¤²": 3033,
      "Ġà¤¬à¥ĭà¤²Ġà¤°à¤¹à¤¾Ġà¤¹à¥Ĥà¤ģà¥¤Ġà¤": 3034,
      "Ġà¤¬à¤¿à¤²à¥įà¤ķà¥ģà¤²Ġà¤łà¥Ģà¤ķĠà¤¹à¥Ĥà¤ģ,Ġà¤": 3035,
      "¶à¥ģà¤°à¥Ĥ": 3036,
      "Ġà¤¹à¥ģà¤Ĩ": 3037,
      "à¤°Ġà¤¬": 3038,
      "Ġsam": 3039,
      "à¥ĭà¤ĤĠà¤ķà¥ĩĠà¤¬à¤¾à¤°à¥ĩĠà¤®à¥ĩà¤Ĥ": 3040,
      "à¤«à¥įà¤¤": 3041,
      "hoĠ": 3042,
      "itĠisĠ": 3043,
      "ourc": 3044,
      "à¥ĢĠà¤°à¤ķà¤®": 3045,
      "à¥ĭà¤Ĺà¥įà¤°à¤¾à¤®": 3046,
      "à¥ĩà¤®à¤Ĥà¤¦": 3047,
      "à¥ĭĠà¤ķà¤¹": 3048,
      ".ĠiĠwasĠ": 3049,
      "mobileĠ": 3050,
      "?Ġà¤¯à¥ĩĠà¤¤à¥ĭĠà¤": 3051,
      "hort": 3052,
      ",Ġà¤¯à¤¹": 3053,
      "à¥įà¤°à¤¿à¤ª": 3054,
      "ify": 3055,
      "perhap": 3056,
      "Ġà¤ķà¤°à¤¨à¤¾Ġà¤ļà¤¾à¤¹à¤¤": 3057,
      "ªà¥įà¤°à¤¿à¤¯à¤¾à¥¤Ġà¤": 3058,
      "excellentĠ": 3059,
      "Ġà¤ķà¥īà¤²Ġà¤": 3060,
      "ĩà¤Ĥà¤¸": 3061,
      "ong": 3062,
      "Ġà¤¨à¤¹à¥Ģà¤ĤĠà¤ķà¤¿à¤¯": 3063,
      "rupees": 3064,
      "teĠhain": 3065,
      ".ĠjustĠ": 3066,
      "à¤¾Ġà¤¤à¥ĭĠà¤": 3067,
      "known": 3068,
      "®à¤¿à¤¸à¥įà¤Łà¤°Ġà¤¶à¤°à¥įà¤®": 3069,
      "Ġthat'sĠaĠ": 3070,
      "°à¤ľà¤¿à¤¸à¥įà¤Łà¤°à¥įà¤¡": 3071,
      "rahul": 3072,
      ",Ġhow": 3073,
      "TP": 3074,
      "iĠwasĠ": 3075,
      "à¤¿à¤¸à¥įà¤¸": 3076,
      "discuss": 3077,
      ".ĠĠthankĠyou": 3078,
      "icalĠ": 3079,
      "Ġà¤¬à¤¿à¤²à¥įà¤ķà¥ģà¤²à¥¤Ġà¤": 3080,
      "directlyĠ": 3081,
      "Ġtell": 3082,
      "conn": 3083,
      "ĠassistĠ": 3084,
      "ollow": 3085,
      "à¥ģà¤°à¥ģà¤Ĩà¤¤": 3086,
      "ľà¤¬": 3087,
      "Ġà¤ľà¥Īà¤¸à¥ĩĠà¤": 3088,
      "Ġhe": 3089,
      "youĠknow": 3090,
      "īà¤¸à¥ĩĠà¤": 3091,
      "click": 3092,
      "à¥Ģà¤®à¤¿à¤¯à¤®": 3093,
      "aut": 3094,
      "à¥ĩĠà¤ķà¥ĭà¤Ī": 3095,
      "ument": 3096,
      "Ġà¤Ĺà¤ı": 3097,
      "ublic": 3098,
      "question": 3099,
      "¸à¤®à¤Ŀ": 3100,
      "īà¤¨à¥įà¤¹à¥ĭà¤Ĥà¤¨à¥ĩĠà¤": 3101,
      "OTP": 3102,
      "vv": 3103,
      "sĠorĠ": 3104,
      "Ġà¤ªà¤¢à¤¼": 3105,
      "ifi": 3106,
      "à¥ĩĠà¤ķà¤¿": 3107,
      "imil": 3108,
      "à¥ĩà¤°à¤¿à¤«à¤¾à¤Ī": 3109,
      "hopeĠ": 3110,
      "-à¤¬": 3111,
      "ainĠ": 3112,
      "vel": 3113,
      "Ġsuch": 3114,
      "ackĠ": 3115,
      "à¤¾à¤µà¤¨": 3116,
      "ĠamountĠ": 3117,
      "one-timeĠ": 3118,
      "icleĠ": 3119,
      "à¥ĩĠà¤¹à¥ĭĠà¤": 3120,
      "urityĠ": 3121,
      "Ġà¤ħà¤ľà¥Ģà¤¬": 3122,
      "Ġhelp": 3123,
      "Ġchec": 3124,
      "Ġavail": 3125,
      "In": 3126,
      ".Ġgoodby": 3127,
      "à¥ĩĠà¤ķà¥įà¤¯": 3128,
      "overĠtheĠ": 3129,
      "à¤¿à¤ķà¥įà¤°à¤®": 3130,
      "exped": 3131,
      "Ġdefinit": 3132,
      "Ġwebsit": 3133,
      "Ġà¤¤à¥ĭĠà¤ķ": 3134,
      "aĠb": 3135,
      "à¤¾à¥¤Ġ": 3136,
      "à¤¾à¤°Ġà¤°": 3137,
      "à¥ģà¤°à¤ķà¥įà¤·à¤¿à¤¤Ġà¤°à¤¹": 3138,
      "waren": 3139,
      "reciateĠ": 3140,
      "Ġà¤ķà¥ĩĠà¤ľ": 3141,
      "respon": 3142,
      "earch": 3143,
      "helpful": 3144,
      "9876": 3145,
      "à¥Ģà¤Ĥ": 3146,
      "à¥ĢĠà¤ķà¥ĭà¤Ī": 3147,
      "ensuresĠ": 3148,
      "trans": 3149,
      "Ġà¤ªà¤¤": 3150,
      ",Ġit'sĠ": 3151,
      "à¥īà¤ľ": 3152,
      ".ĠweĠhaveĠ": 3153,
      "final": 3154,
      "ĠtextĠmessageĠ": 3155,
      "ĠmeĠ": 3156,
      "andat": 3157,
      "à¥įà¤°à¥ĭà¤«": 3158,
      "risk": 3159,
      "ļà¥ĩà¤ķ": 3160,
      "preventĠ": 3161,
      "Ġà¤¬à¤¿à¤²à¤ķà¥ģà¤²": 3162,
      "à¥ĩĠà¤®à¤¿à¤²": 3163,
      "review": 3164,
      "ativ": 3165,
      "à¥Ĥà¤Ĥ?": 3166,
      "Ġà¤ķà¥ĭà¤ĪĠà¤¬à¤¾à¤¤Ġà¤": 3167,
      "ug": 3168,
      "wift": 3169,
      "à¥įà¤°Ġà¤": 3170,
      "à¤¾Ġà¤Ĺ": 3171,
      "Ġà¤¤à¥ģà¤°à¤Ĥà¤¤": 3172,
      "moneyĠ": 3173,
      "ĠallĠ": 3174,
      "earlier": 3175,
      "zar": 3176,
      "à¤¿à¤«à¤Ĥà¤¡": 3177,
      "à¤Ĥà¤ªà¤°à¥įà¤ķ": 3178,
      "à¥Ĥà¤Ł": 3179,
      "Ġtry": 3180,
      "pert": 3181,
      ",Ġthank": 3182,
      "elig": 3183,
      "got": 3184,
      "option": 3185,
      "Ġà¤¹à¥ĭĠà¤Ĺ": 3186,
      "Ġatt": 3187,
      "Ġà¤ĳà¤¨à¤²à¤¾à¤ĩà¤¨": 3188,
      "à¤¾Ġà¤ķà¤°à¤¨": 3189,
      "Ġà¤ħà¤¬": 3190,
      "ackageĠ": 3191,
      "Ġà¤Ĩà¤®": 3192,
      "freeĠ": 3193,
      "ujheĠ": 3194,
      "ward": 3195,
      "âĤ¹3": 3196,
      "you'veĠ": 3197,
      "'Ġ": 3198,
      "Ĩà¤¯": 3199,
      "Ĩà¤Ĥà¤Ł": 3200,
      "Ġà¤¸à¥ĩĠà¤¬à¤ļ": 3201,
      "Ġà¤ķà¥ĩĠà¤®": 3202,
      "Ġprot": 3203,
      "à¤Ńà¥Ģ-à¤ķ": 3204,
      "ĠsomethingĠ": 3205,
      "nameĠisĠ": 3206,
      "inĠtheĠnextĠ": 3207,
      "kindĠof": 3208,
      "fast": 3209,
      "µà¥ĩà¤°à¤¿à¤«à¤¿à¤ķà¥ĩà¤¶à¤¨": 3210,
      "à¥īà¤²Ġà¤": 3211,
      "à¥ĩĠà¤¸à¥ĩĠà¤": 3212,
      "à¤°Ġà¤ªà¤°Ġà¤": 3213,
      "eĠthe": 3214,
      "Ġà¤«à¤¿": 3215,
      "Ġà¤īà¤¨à¤ķ": 3216,
      "à¥ĩĠà¤ķà¤°": 3217,
      "à¤¾Ġà¤¹à¥ĪĠà¤Ķà¤°Ġà¤": 3218,
      "Ġdon": 3219,
      ",Ġà¤ľà¤¿à¤¸": 3220,
      "manyĠ": 3221,
      "à¤¾Ġà¤ħà¤ķà¤¾à¤īà¤Ĥà¤Ł": 3222,
      "ĠadministrativeĠ": 3223,
      "«à¥įà¤°": 3224,
      "Ġso,Ġ": 3225,
      "à¤¤à¥ĢĠà¤¹à¥Ī": 3226,
      "à¤¿à¤¸à¥ĢĠà¤Ńà¥ĢĠà¤": 3227,
      "rather": 3228,
      "italĠ": 3229,
      "µà¤¾à¤¦": 3230,
      "Ġthey'": 3231,
      "haven'tĠ": 3232,
      "Ġbo": 3233,
      "à¤¿à¤¶à¥įà¤ļ": 3234,
      "Ġà¤ħà¤°à¥ĩĠà¤": 3235,
      "hol": 3236,
      "à¤°à¥ĩà¤¶à¤¾à¤¨": 3237,
      "entic": 3238,
      "unt": 3239,
      "uniqu": 3240,
      "à¤¯à¥ĭà¤Ĺ": 3241,
      "Ġà¤ľà¤¼à¥įà¤¯à¤¾à¤¦": 3242,
      "à¤¾Ġà¤ļà¤²": 3243,
      "ļà¤¾à¤°à¥įà¤ľ": 3244,
      "ingh": 3245,
      "ingĠandĠ": 3246,
      "Ġanil": 3247,
      "à¤¨à¤¾Ġà¤ļà¤¾à¤¹à¤¤": 3248,
      "50,000": 3249,
      "hesit": 3250,
      "à¤µà¤°": 3251,
      "Ġtar": 3252,
      ".Ġyou": 3253,
      "ourĠsystem": 3254,
      "Ġinst": 3255,
      "¬à¤¿à¤²à¥įà¤ķà¥ģà¤²Ġà¤¸à¤¹à¥Ģ": 3256,
      "5000": 3257,
      "Ġte": 3258,
      "Ġtext": 3259,
      "ingĠyour": 3260,
      "depos": 3261,
      "ocument": 3262,
      "Ġà¤ķà¤°à¤¨à¥ĩĠà¤¸": 3263,
      ",Ġbut": 3264,
      "Ġpl": 3265,
      "à¤¿à¤²à¤ļà¤¸à¥įà¤ª": 3266,
      "Ġà¤«à¥ĭà¤¨": 3267,
      "Ġà¤ķà¤°Ġà¤¦à¥Ģà¤ľà¤¿à¤ı": 3268,
      "à¥ĢĠà¤®à¥ĩà¤Ĥ": 3269,
      "e'veĠ": 3270,
      "bah": 3271,
      "potential": 3272,
      "ªà¥Īà¤¸": 3273,
      "à¥ĩà¤¶à¤¨à¤²Ġà¤": 3274,
      "createĠ": 3275,
      "edĠfor": 3276,
      "à¥ĩĠà¤ªà¤¹à¤²à¥ĩĠà¤": 3277,
      "ĩà¤Ĥà¤¤à¤ľà¤¼": 3278,
      "à¤¾Ġà¤¹à¥ĭĠà¤": 3279,
      "yes,Ġs": 3280,
      "à¥ĩà¤¯à¤°Ġà¤": 3281,
      "à¥ĩà¤¹à¤¤": 3282,
      "ĸà¥įà¤¯à¤¾à¤²Ġà¤°à¤ĸà¤¨": 3283,
      "pat": 3284,
      "Ġà¤¬à¤¿à¤¨": 3285,
      "Ġà¤«à¥įà¤°": 3286,
      "²à¥ĩà¤ķà¤°Ġà¤": 3287,
      "Ġà¤¬à¤¿à¤²à¥įà¤ķà¥ģà¤²Ġà¤¸à¤¹à¥Ģ": 3288,
      "Ġadvanc": 3289,
      "ļà¥Ģà¤ľà¤¼": 3290,
      "Ġà¤ıà¤ķĠà¤": 3291,
      ",Ġà¤ľà¥ĭĠà¤": 3292,
      "Ġà¤ķà¤¨à¥įà¤«à¤°à¥įà¤®à¥ĩà¤¶à¤¨": 3293,
      "giveĠ": 3294,
      "ibil": 3295,
      "¤à¤ķ": 3296,
      "Ġl": 3297,
      "thingĠs": 3298,
      ".ĠĠexcellent": 3299,
      "Ġà¤¹à¥ĭà¤¤à¤¾Ġà¤¹à¥Īà¥¤Ġà¤": 3300,
      "à¤¿à¤ªà¥ĭà¤°à¥įà¤Ł": 3301,
      "ħà¤²à¤µà¤¿à¤¦": 3302,
      "Aap": 3303,
      "ĠC": 3304,
      "à¥ĢĠà¤µà¤¾à¤²": 3305,
      "à¥ĩĠà¤¹à¥ģà¤ı": 3306,
      "verifiedĠ": 3307,
      "à¤¾à¤¤à¤¾Ġà¤¹à¥Īà¥¤Ġà¤": 3308,
      "Ńà¥ĩà¤ľĠà¤¦": 3309,
      "20": 3310,
      "ĩà¤¤": 3311,
      "à¤¾à¤§": 3312,
      "Ġtax": 3313,
      "rightĠnow": 3314,
      "ªà¤¡à¤¼": 3315,
      "à¤¨à¤Ĥà¤¦": 3316,
      "Ġà¤¤à¥Īà¤¯": 3317,
      "Ĩà¤ªà¤ķà¥ĢĠà¤": 3318,
      "à¤¾à¤ĩà¤µ": 3319,
      "unication": 3320,
      ",ĠthisĠisĠ": 3321,
      "enal": 3322,
      "Ġpersonal": 3323,
      "yourĠregisteredĠ": 3324,
      "¯à¤¾Ġà¤«à¤¿": 3325,
      "Ġà¤¬à¤¿à¤²à¥įà¤ķà¥ģà¤²Ġà¤¸à¤¹à¥Ģà¥¤Ġà¤": 3326,
      ",Ġaur": 3327,
      "ĠthatĠmakesĠs": 3328,
      "54": 3329,
      "bas": 3330,
      "¡à¤¿à¤ľà¤¿à¤Ł": 3331,
      "µà¥ĭĠà¤ķ": 3332,
      "ļà¤¿à¤Ĥà¤¤": 3333,
      "ļà¥Īà¤¨à¤²": 3334,
      "cert": 3335,
      "à¤°à¥Ĥà¤°Ġà¤": 3336,
      "à¤¾Ġ'": 3337,
      "Ġtw": 3338,
      "esĠareĠ": 3339,
      "olveĠ": 3340,
      "à¥ĩĠà¤¬à¤¹à¥ģà¤¤Ġà¤": 3341,
      "Ġà¤°à¤¹à¥ĩĠà¤¹à¥Īà¤Ĥ": 3342,
      "Ġà¤¶à¤¾à¤¨à¤¦à¤¾à¤°Ġà¤": 3343,
      "Ġprior": 3344,
      "Ġà¤Ĳà¤ª": 3345,
      "Ġsend": 3346,
      "?Ġ\"": 3347,
      "?ĠĠtheĠ": 3348,
      "Ġà¤ķà¥ĢĠà¤¬à¤¾à¤¤": 3349,
      "Ġà¤ķà¥ĩĠà¤ľà¤°à¤¿à¤ı": 3350,
      "digital": 3351,
      "à¥ĩà¤¤à¥ĩĠà¤¹à¥Īà¤Ĥà¥¤Ġà¤": 3352,
      "eĠis": 3353,
      "Ġpa": 3354,
      "®à¥ĩà¤°à¥ĩĠà¤": 3355,
      "mostĠwelcom": 3356,
      "week": 3357,
      "wonderful": 3358,
      ",Ġà¤¹à¥ĪĠà¤¨": 3359,
      "eas": 3360,
      "à¤²à¤¾à¤ĩà¤¨": 3361,
      "lik": 3362,
      "à¥ĢĠà¤¸à¤²à¤¾à¤¹": 3363,
      "Ġà¤ķà¤°Ġà¤¦à¥ĩà¤¤": 3364,
      "confirmation": 3365,
      "à¥¤Ġà¤ķà¥įà¤¯à¤¾Ġà¤Ĩà¤ª": 3366,
      "personal": 3367,
      "gl": 3368,
      "Ġà¤¹à¤®à¥ĩà¤ĤĠà¤": 3369,
      "Ġà¤¶à¥ģà¤°à¥Ĥ": 3370,
      "common": 3371,
      "return": 3372,
      "Ġà¤¹à¥ĪĠà¤Ķà¤°Ġà¤": 3373,
      "therĠ": 3374,
      "ĠalsoĠ": 3375,
      "īà¤¨à¤ķà¥ĩĠà¤": 3376,
      "à¥¤Ġà¤ķà¥ĥà¤ªà¤¯à¤¾Ġà¤": 3377,
      "ĠassistĠyou": 3378,
      "bu": 3379,
      "à¥ģà¤°à¥įà¤®": 3380,
      "Ġprofil": 3381,
      "®à¤¿à¤¸à¥įà¤Łà¤°Ġà¤ķ": 3382,
      "ingĠto": 3383,
      "had": 3384,
      "Ġà¤¨à¤Ĥà¤¬à¤°Ġà¤": 3385,
      "Ġà¤ķà¥īà¤²Ġà¤ķà¤°Ġà¤°à¤¹": 3386,
      "manag": 3387,
      "cha": 3388,
      "dayĠ": 3389,
      "Łà¤¾à¤ĩà¤®": 3390,
      "inrĠ": 3391,
      "ingĠfeeĠ": 3392,
      "Ġà¤ıà¤ķĠà¤¸": 3393,
      "keep": 3394,
      "beĠtr": 3395,
      "Łà¥ĩà¤ķ": 3396,
      "only": 3397,
      "ĠsendĠ": 3398,
      "cruc": 3399,
      "ĠpleaseĠ": 3400,
      "à¤¬à¤¸à¥ĩĠà¤ħà¤ļà¥įà¤Ľ": 3401,
      "Ġà¤¹à¥ĭà¤¤à¤¾Ġà¤¹à¥Ī": 3402,
      "Ġautom": 3403,
      "à¥ĩĠà¤¹à¥ĭà¤Ĥà¤Ĺ": 3404,
      "ingĠm": 3405,
      "à¤¾Ġà¤ķà¤¾à¤°à¥įà¤¡": 3406,
      "Ġà¤ķà¤°Ġà¤¸à¤ķà¤¤à¥ĩĠà¤¹à¥Īà¤Ĥ": 3407,
      "vide": 3408,
      "ļà¤²": 3409,
      "à¤¨à¥ĩà¤¸": 3410,
      "emp": 3411,
      "hoon": 3412,
      "i'mĠgood": 3413,
      "joĠ": 3414,
      "à¥įà¤ŀ": 3415,
      "ĠthisĠs": 3416,
      "standardĠ": 3417,
      "¯à¤¹Ġà¤¸": 3418,
      "notĠs": 3419,
      "999": 3420,
      "ĠdetailsĠ": 3421,
      "Ġà¤¸à¥ĭà¤ļĠà¤°à¤¹": 3422,
      "benef": 3423,
      "patch": 3424,
      "ros": 3425,
      "32": 3426,
      "à¥įà¤µà¤¾à¤": 3427,
      "Ġauthor": 3428,
      "notic": 3429,
      "ren": 3430,
      "¨à¤ı": 3431,
      "²à¤¿à¤ĸ": 3432,
      "à¥ĢĠà¤ķà¥ĩĠà¤¬à¤¾à¤°à¥ĩĠà¤®à¥ĩà¤Ĥ": 3433,
      "artĠ": 3434,
      "Ġà¤ķà¥ĢĠà¤ª": 3435,
      "legal": 3436,
      "Ġà¤¥à¥ĭà¤¡à¤¼à¤¾Ġà¤": 3437,
      "Ġà¤°à¥ĭà¤¹à¤¨": 3438,
      "Ġà¤®à¤¿à¤¸à¥įà¤Ł": 3439,
      "à¥īà¤°à¥įà¤¡": 3440,
      "expl": 3441,
      "uthentic": 3442,
      "Ġà¤¹à¤ľà¤¼à¤¾à¤°Ġà¤°": 3443,
      "à¤°Ġà¤ķà¥īà¤²": 3444,
      "ivid": 3445,
      "ifĠitĠ": 3446,
      "does": 3447,
      "cal": 3448,
      "Ġmed": 3449,
      "Ġà¤¡à¤¿à¤Łà¥ĩà¤²à¥įà¤¸": 3450,
      "Ġà¤ķà¥ĭà¤¡": 3451,
      "e,ĠandĠ": 3452,
      "pric": 3453,
      "press": 3454,
      "à¤¹à¥ĢĠà¤": 3455,
      "Ľà¥ĭà¤Łà¥ĢĠà¤¸": 3456,
      "ta": 3457,
      "Ġof": 3458,
      "very": 3459,
      "empor": 3460,
      "à¤¤à¥ĩĠà¤¹à¥Īà¤Ĥ,Ġà¤": 3461,
      "?ĠĠyes,": 3462,
      "¬à¤¹à¥ģà¤¤Ġà¤¸": 3463,
      "Ġà¤ĩà¤¸à¥ĩĠà¤": 3464,
      "regarding": 3465,
      "ĠtypicallyĠ": 3466,
      "ativeĠ": 3467,
      "à¤¿à¤¯à¤°": 3468,
      "ask": 3469,
      "à¤¾à¥¤Ċ": 3470,
      "à¤¾à¤«à¥ĢĠà¤": 3471,
      "Ġà¤ħà¤Ĺà¤²": 3472,
      "mentioned": 3473,
      "Ġthere's": 3474,
      "crucial": 3475,
      "wareĠ": 3476,
      "Ġverification": 3477,
      "à¤¨à¥ĩ": 3478,
      "riya": 3479,
      "importantĠ": 3480,
      "Ġà¤¹à¤®à¥ĩà¤¶à¤¾Ġà¤": 3481,
      "vigilant": 3482,
      "bahutĠ": 3483,
      "report": 3484,
      "ious.Ġ": 3485,
      "ħà¤¸": 3486,
      "à¤¾à¤¨à¥Ĥà¤¨": 3487,
      "first": 3488,
      "madeĠ": 3489,
      "à¥ĭà¤¬à¤¾à¤ĩà¤²Ġà¤": 3490,
      "15": 3491,
      "akĠ": 3492,
      "Ĩà¤ªà¤ķà¥ĢĠà¤¸": 3493,
      "ĠwouldĠ": 3494,
      "Ġcomplet": 3495,
      "izedĠ": 3496,
      "health": 3497,
      "Ġà¤¹à¥Īà¤²à¥ĭ,Ġà¤ķà¥įà¤¯à¤¾Ġà¤": 3498,
      "authoriz": 3499,
      "ingĠaboutĠ": 3500,
      "à¥ĢĠà¤ķà¤Ĥà¤ªà¤¨": 3501,
      "à¤¾à¤¹à¥ģà¤²": 3502,
      "Ġadvertis": 3503,
      "à¥Īà¤¸à¥ĩĠà¤ķà¤¿": 3504,
      "ner": 3505,
      "à¤°à¥Ģà¤¦": 3506,
      ",ĠespeciallyĠ": 3507,
      "ild": 3508,
      "ĳà¤«à¤°Ġà¤": 3509,
      "Ġagre": 3510,
      "greatĠ": 3511,
      "card": 3512,
      "ħà¤Ńà¥Ģ": 3513,
      "Ġthing": 3514,
      "releas": 3515,
      "esĠandĠ": 3516,
      "eli": 3517,
      "heard": 3518,
      "ocial": 3519,
      "Ġhello,ĠiĠ": 3520,
      "à¤¾à¤Ĺà¤°à¥Ĥ": 3521,
      "kapoor": 3522,
      "ĸà¤°à¥įà¤ļ": 3523,
      "à¥ĭà¤¡": 3524,
      "hareĠ": 3525,
      "clud": 3526,
      "Ġamit": 3527,
      "protocol": 3528,
      "fl": 3529,
      "ve": 3530,
      "à¤¿à¤Ĺ": 3531,
      "Ġthous": 3532,
      "Ġà¤¸à¥ĩ": 3533,
      "Ġà¤¤à¥Ĥ": 3534,
      "ĳà¤«à¤¿à¤¸": 3535,
      "à¥ĩ,Ġà¤¤à¥ĭĠà¤": 3536,
      "Ġà¤ħà¤ªà¤¨à¤¾Ġà¤": 3537,
      "Ġà¤ªà¥įà¤°à¤ķà¥įà¤°à¤¿à¤¯": 3538,
      "instant": 3539,
      "rupeesĠ": 3540,
      "det": 3541,
      "Ġà¤ĺ": 3542,
      "Ġà¤®à¥Įà¤ķ": 3543,
      "Ġstep": 3544,
      "à¤¨à¥įà¤«à¤¼": 3545,
      "à¤¿à¤ķà¥įà¤¯à¥ĭà¤°": 3546,
      "@ok": 3547,
      "à¤¾à¤°à¥įà¤ķ": 3548,
      "Ġalloc": 3549,
      "ĠaccessĠ": 3550,
      "à¤¿à¤¶à¥įà¤ļà¤¿à¤¤": 3551,
      "yes,Ġspeak": 3552,
      "bestĠ": 3553,
      "ĸà¤¼": 3554,
      "à¤¾à¤ĩà¤¡": 3555,
      "ĠthatâĢĻsĠ": 3556,
      "didn'tĠ": 3557,
      "Ġso": 3558,
      "ĠtoĠavo": 3559,
      "à¤¾Ġà¤ķà¤¾à¤®": 3560,
      "īà¤¸à¤®à¥ĩà¤Ĥ": 3561,
      "registration": 3562,
      "ıà¤ķà¥įà¤¸à¤ªà¤¾à¤¯à¤°": 3563,
      "fac": 3564,
      "Ġà¤¸à¤¿à¤¸à¥įà¤Łà¤®": 3565,
      "à¥ĩĠà¤®à¥ĩà¤ĤĠà¤": 3566,
      "ople": 3567,
      "prior": 3568,
      "ĠtransferĠ": 3569,
      "Ġà¤ķà¤°à¤¨à¥ĩĠà¤Ķà¤°Ġà¤": 3570,
      "Ńà¥ģà¤Ĺà¤¤à¤¾à¤¨": 3571,
      "à¤°à¤£": 3572,
      "à¤Ĥà¤ľ": 3573,
      "urantĠ": 3574,
      "à¥ĩĠà¤¬à¥Īà¤Ĥà¤ķ": 3575,
      "VV": 3576,
      "à¥Ģà¤«": 3577,
      ",ĠM": 3578,
      "edĠin": 3579,
      "uncle": 3580,
      "à¤¾à¥¤Ġà¤ķà¥įà¤¯à¤¾Ġà¤": 3581,
      "wayĠ": 3582,
      "peri": 3583,
      "Łà¥įà¤°à¤¾à¤Ĥà¤ľ": 3584,
      "goodĠtoĠbeĠtr": 3585,
      "websiteĠ": 3586,
      "Ġà¤¹à¥Īà¥¤": 3587,
      "yourĠaccount": 3588,
      "Ġmain": 3589,
      "à¥įà¤ķà¤¿à¤²": 3590,
      "âĤ¹7": 3591,
      "opportunityĠ": 3592,
      "upfront": 3593,
      "Ġcertain": 3594,
      "nominal": 3595,
      "à¥ĩà¤²Ġà¤": 3596,
      "Ġà¤ķà¤¸à¥įà¤Łà¤®": 3597,
      "itsĠ": 3598,
      "ilkul": 3599,
      "achĠ": 3600,
      "ĠtheyĠs": 3601,
      "à¤¿à¤µà¤¾à¤°": 3602,
      "number,Ġ": 3603,
      "ıà¤ķà¥įà¤¸à¥ĩà¤¸": 3604,
      "à¤¨à¥įà¤«à¤¼à¤°à¥įà¤®": 3605,
      "are": 3606,
      "µà¥ĭ": 3607,
      ".ĠthankĠyouĠfor": 3608,
      "ĠA": 3609,
      "à¥ĭà¤ľ": 3610,
      ".ĠĠthat'sĠ": 3611,
      ".Ġit's": 3612,
      "à¤¹à¤¯à¥ĭà¤Ĺ": 3613,
      "atingĠ": 3614,
      "ĩà¤¸à¤®à¥ĩà¤Ĥ": 3615,
      "à¥ĢĠà¤¹à¥ģà¤Ī": 3616,
      "à¥ĢĠà¤®à¤¦à¤¦": 3617,
      "¤à¥ģà¤®à¥įà¤¹à¤¾à¤°à¥ĩĠà¤": 3618,
      "partic": 3619,
      "ĠseeĠ": 3620,
      "Ġà¤Ńà¥ĩà¤ľĠà¤¦": 3621,
      "hasĠbeen": 3622,
      "ividual": 3623,
      "net": 3624,
      "ĸà¤¤à¤°": 3625,
      "Ġà¤¸à¥ĩĠà¤¬à¤¾à¤¤": 3626,
      "Ġanjal": 3627,
      "Ġpart": 3628,
      "à¥ĩà¤Łà¤µ": 3629,
      "iĠsuppos": 3630,
      "à¤¾à¤¯à¤°à¥ĩà¤ķà¥įà¤Ł": 3631,
      "ħà¤ľà¥Ģà¤¬Ġà¤²à¤Ĺ": 3632,
      "à¤¾à¤¨à¥ĩĠà¤µà¤¾à¤²": 3633,
      "fun": 3634,
      "wal": 3635,
      "itĠs": 3636,
      "directĠ": 3637,
      "Ġà¤¹à¤¾à¤Ĥ,Ġà¤": 3638,
      "à¥įà¤°à¥īà¤¡": 3639,
      "eĠof": 3640,
      "à¥Ģà¤": 3641,
      "à¤¨à¤²Ġà¤": 3642,
      "verma": 3643,
      "à¤¾Ġà¤ķà¤¿à¤¸à¥ĢĠà¤": 3644,
      ".Ġwe'reĠ": 3645,
      "à¤¾Ġà¤ªà¥įà¤°": 3646,
      "Ġà¤ĩà¤Ĥà¤¡à¤¿à¤¯": 3647,
      "design": 3648,
      "further": 3649,
      "ĩà¤®": 3650,
      "es.ĠĠ": 3651,
      "à¥ĩĠà¤¹à¤¾à¤ģ": 3652,
      "à¥ĭà¤ĤĠà¤ªà¤°Ġà¤": 3653,
      "lient": 3654,
      "forĠyou": 3655,
      ".ĠĠoh,": 3656,
      "ħà¤®à¤¿à¤¤": 3657,
      "à¥ĢĠà¤ķà¥ģà¤Ľ": 3658,
      "quit": 3659,
      "à¥įà¤¯à¥Ĥà¤Ł": 3660,
      "456": 3661,
      "Ġcr": 3662,
      "ĠactĠ": 3663,
      "¬à¤¿à¤²à¥įà¤ķà¥ģà¤²à¥¤Ġà¤": 3664,
      "ĳà¤«à¤¿à¤¶à¤¿à¤¯à¤²Ġà¤µà¥ĩà¤¬à¤¸à¤¾à¤ĩà¤Ł": 3665,
      "Ġà¤¸à¥ĩĠà¤ľà¥ģà¤¡à¤¼": 3666,
      "would": 3667,
      "stay": 3668,
      "record": 3669,
      "uccess": 3670,
      ".Ġhowever": 3671,
      "Ĩà¤ªà¤ķà¥ĩĠà¤ħà¤ķà¤¾à¤īà¤Ĥà¤Ł": 3672,
      "à¤¾à¤®à¤¾à¤¨à¥įà¤¯": 3673,
      "ix": 3674,
      "°à¤¾à¤ľà¥ĩà¤¶": 3675,
      "arm": 3676,
      "Ġanand": 3677,
      "iĠneedĠtoĠ": 3678,
      "ĩà¤¸à¤ķà¥ĩĠà¤²à¤¿à¤ı": 3679,
      "essential": 3680,
      "à¥ĢĠà¤¸à¥ĭà¤ļ": 3681,
      "à¤¾à¤¹à¤¬": 3682,
      "ħà¤Ĺà¤°Ġà¤Ĩà¤ª": 3683,
      "Ġà¤ªà¥įà¤°à¥ĭà¤¸à¥ĩà¤¸à¤¿à¤Ĥà¤Ĺ": 3684,
      "ribution": 3685,
      "ħà¤ļà¤¾à¤¨à¤ķ": 3686,
      "Ġsub": 3687,
      "Ġà¤ªà¥Īà¤¸": 3688,
      "indow": 3689,
      "ĠareĠyouĠdoingĠtoday": 3690,
      "à¤¾Ġà¤Ńà¥ĢĠà¤": 3691,
      "isĠaĠ": 3692,
      "Ĩà¤ªà¤ķà¤¾Ġà¤¸": 3693,
      "¯à¤¹Ġà¤ıà¤ķ": 3694,
      "Ġà¤®à¤¿à¤²Ġà¤ľà¤¾à¤ıà¤Ĺ": 3695,
      "secure": 3696,
      "ription": 3697,
      ".Ġi'm": 3698,
      "ortĠ": 3699,
      "Ġà¤ªà¥Īà¤¸à¥ĩĠà¤": 3700,
      "Ġà¤²à¥ĩà¤¨": 3701,
      "iĠshouldĠ": 3702,
      "Ġà¤ķà¥Īà¤¸à¥ĩĠà¤¹à¥ĭ?": 3703,
      "à¤¾Ġà¤¹à¥Ī,Ġà¤Ķà¤°Ġà¤": 3704,
      "contact": 3705,
      "à¥Īà¤¸à¥ĩĠà¤®à¤¾à¤ģà¤Ĺ": 3706,
      "follow": 3707,
      "¢à¥Ĥà¤Ĥ": 3708,
      "à¥ĭà¤®": 3709,
      "ĠaĠd": 3710,
      "Ġà¤Ĩà¤Ĺ": 3711,
      "ensur": 3712,
      "hear": 3713,
      "critical": 3714,
      "br": 3715,
      "kh": 3716,
      "ħà¤ķà¥įà¤¸à¤°Ġà¤": 3717,
      "Ġà¤ķà¤¾Ġà¤¸": 3718,
      "à¥ĢĠà¤ķà¥ĢĠà¤": 3719,
      "baatĠ": 3720,
      "Ġah,Ġ": 3721,
      "Ġà¤¹à¤ľà¤¼à¤¾à¤°Ġà¤°à¥ģà¤ªà¤¯": 3722,
      "partĠ": 3723,
      "ept": 3724,
      "fraud": 3725,
      "erv": 3726,
      "Ġà¤¸à¥Ģà¤§": 3727,
      "ħà¤ªà¤¡à¥ĩà¤Ł": 3728,
      "ifĠyouĠ": 3729,
      "Īà¤®à¥ĩà¤²": 3730,
      "Ġawaren": 3731,
      "keĠba": 3732,
      "¯à¥ĩĠà¤²à¥ĭà¤Ĺ": 3733,
      "Ġà¤¤à¥ģà¤®à¥įà¤¹à¥ĩà¤ĤĠà¤": 3734,
      "government": 3735,
      "30": 3736,
      "à¥ĩ,": 3737,
      "à¥ĩĠà¤¬à¤¤": 3738,
      "ware": 3739,
      "Ġà¤¤à¥ģà¤®à¥įà¤¹à¤¾à¤°à¥ĢĠà¤": 3740,
      "Ġà¤¯à¤¾Ġà¤«à¤¿à¤°Ġà¤": 3741,
      "sĠof": 3742,
      "à¤¿à¤Łà¥ĩà¤¡": 3743,
      "à¥įà¤²à¥īà¤Ł": 3744,
      "Ġà¤Ĩà¤ı": 3745,
      "whyĠ": 3746,
      "ĠtooĠgoodĠtoĠbeĠtr": 3747,
      "global": 3748,
      "?Ġà¤ķà¥įà¤¯à¤¾Ġà¤": 3749,
      "mer": 3750,
      "wis": 3751,
      "Ġà¤ķà¤Ńà¥ĢĠà¤": 3752,
      ".Ġhello": 3753,
      "Ġà¤ķà¤°à¥ĩà¤Ĥ": 3754,
      "¡à¥ĩà¤Ł": 3755,
      ".Ġi'll": 3756,
      "à¤°Ġà¤ķà¥ĭà¤Ī": 3757,
      "Ġà¤µà¥ĩà¤°à¤¿à¤«à¤¿à¤ķà¥ĩà¤¶à¤¨": 3758,
      "wayĠtoĠ": 3759,
      "appro": 3760,
      "à¤µà¤¾à¤Ĥ": 3761,
      "gett": 3762,
      "Ġcommon": 3763,
      "à¥ĢĠà¤ķà¥įà¤¯à¤¾Ġà¤®": 3764,
      "à¤¿à¤·": 3765,
      "Ġtak": 3766,
      "ingĠyou": 3767,
      "à¤¿à¤«à¤¿à¤ķà¥ĩà¤¶à¤¨": 3768,
      "meinĠ": 3769,
      "ationĠisĠ": 3770,
      "required": 3771,
      "à¥Ĥà¤Ĥà¤Ĺà¤¾à¥¤Ġà¤": 3772,
      "à¥ĢĠà¤ķà¥įà¤¯à¤¾Ġà¤®à¤¦à¤¦Ġà¤ķà¤°Ġà¤¸à¤ķà¤¤": 3773,
      "à¥Īà¤Ł": 3774,
      "icĠ": 3775,
      "à¤¤à¥ĩĠà¤¹à¥Īà¤ĤĠà¤ķà¤¿": 3776,
      ".ĠiĠwill": 3777,
      "hog": 3778,
      "redĠflag": 3779,
      "ĠpeopleĠ": 3780,
      "Ġpre": 3781,
      "Ġà¤¬à¤¡à¤¼": 3782,
      "à¥įà¤Łà¥įà¤°": 3783,
      "à¥ĢĠà¤ľà¤²à¥įà¤¦": 3784,
      "Ġà¤¹à¥Īà¤Ĥ,Ġà¤": 3785,
      "Ġdetails": 3786,
      "ħà¤ļà¥įà¤Ľà¤¾Ġà¤²à¤Ĺà¤¾à¥¤Ġà¤": 3787,
      "ember": 3788,
      "à¤Ńà¥Ģ-à¤ķà¤Ńà¥ĢĠà¤": 3789,
      "à¤¾à¤¶": 3790,
      ".Ġyour": 3791,
      "reli": 3792,
      "otential": 3793,
      "uniqueĠ": 3794,
      "custom": 3795,
      "gate": 3796,
      "à¤¨à¤¾à¥¤Ġà¤": 3797,
      "à¥ĢĠà¤²": 3798,
      "Ġspecial": 3799,
      "ĠtryĠtoĠ": 3800,
      "Ġà¤¬à¤¹à¥ģà¤¤Ġà¤ħà¤ļà¥įà¤Ľ": 3801,
      "fessional": 3802,
      "Łà¥įà¤°à¤¾à¤Ĥà¤ľà¥Īà¤ķà¥įà¤¶à¤¨": 3803,
      "matter": 3804,
      "Ġauthoriz": 3805,
      "ing.ĠwhoĠ": 3806,
      "ıà¤ķà¥įà¤¸à¤ķà¥įà¤²à¥Ĥà¤¸à¤¿à¤µ": 3807,
      "ĠthoughtĠ": 3808,
      "ĩà¤¤à¤¨": 3809,
      "à¤¨à¤¾Ġà¤ļà¤¾à¤¹à¤¿à¤ı": 3810,
      "ressĠ": 3811,
      "confirmĠyour": 3812,
      "mr.Ġsharma": 3813,
      "evenĠ": 3814,
      "valid": 3815,
      "mentionedĠ": 3816,
      ".ĠareĠyou": 3817,
      "à¥ĩà¤ļ": 3818,
      "ingĠitĠ": 3819,
      "Ġà¤ķà¤°à¤¨à¤¾à¥¤Ġà¤": 3820,
      "upgra": 3821,
      "wouldĠbeĠ": 3822,
      "¯à¥ĩĠà¤¤à¥ĭĠà¤¬à¤¹à¥ģà¤¤Ġà¤": 3823,
      "blem": 3824,
      "¶à¤¾à¤®à¤¿à¤²": 3825,
      "ham": 3826,
      "Ġman": 3827,
      "à¤¾Ġà¤¸à¥ĭà¤ļ": 3828,
      "ħà¤²à¤Ĺ": 3829,
      "delay": 3830,
      "ĠaskĠfor": 3831,
      "imilar": 3832,
      "Ġà¤ľà¤¿à¤¨": 3833,
      "Ġcons": 3834,
      "Ġà¤¬à¥ĭà¤²Ġà¤°à¤¹à¤¾Ġà¤¹à¥Ĥà¤ģ": 3835,
      "likeĠthat": 3836,
      "Ġà¤Łà¥įà¤°": 3837,
      "yourĠcardĠ": 3838,
      "karneĠkeĠliy": 3839,
      "«à¤¾à¤ĩà¤¨à¥ĩà¤Ĥà¤¶à¤¿à¤¯": 3840,
      "bad": 3841,
      "Ġport": 3842,
      "allĠ": 3843,
      "®à¥Īà¤ĤĠà¤Ĩà¤ªà¤ķ": 3844,
      "à¥ĩĠà¤Ķà¤°Ġà¤": 3845,
      "eĠthing": 3846,
      ",ĠandĠtheĠ": 3847,
      "UPIĠID": 3848,
      "Ġà¤ªà¥Ĥà¤°à¥ĢĠà¤¤à¤°à¤¹": 3849,
      "à¤¾à¤ªà¤¨": 3850,
      "sĠaĠbitĠ": 3851,
      "Ġà¤¸à¥ĩà¥¤Ġà¤": 3852,
      "Ġclear": 3853,
      "à¤¾à¤ĩà¤Ĥà¤Ł": 3854,
      "Ġà¤¬à¤¹à¥ģà¤¤Ġà¤¸": 3855,
      "à¤¾à¤ĵà¤Ĥ": 3856,
      "®à¤¿à¤¸": 3857,
      "Ġsoon": 3858,
      ".ĠĠyes,": 3859,
      "à¥ĢĠà¤¸à¤°à¥įà¤µà¤¿à¤¸": 3860,
      "Ġalert": 3861,
      "Ġà¤ıà¤ķà¥įà¤Łà¤¿à¤µ": 3862,
      "¨à¤¹à¥Ģà¤Ĥà¥¤Ġà¤": 3863,
      "legitimat": 3864,
      "otion": 3865,
      "ªà¤¤": 3866,
      "Ĺà¥įà¤°": 3867,
      "Ġaway": 3868,
      "à¤¾Ġà¤¸à¤ķ": 3869,
      "prevent": 3870,
      "curr": 3871,
      "ªà¥Īà¤¸à¥ĩĠà¤": 3872,
      "ªà¥įà¤°à¥ĭà¤¸à¥ĩà¤¸": 3873,
      "ĠsureĠ": 3874,
      "?ĠĠweĠ": 3875,
      "ingĠforĠ": 3876,
      "remot": 3877,
      "fortun": 3878,
      "ship": 3879,
      "à¥ĩĠà¤¤à¥ĭĠà¤": 3880,
      "Ġà¤¹à¥ĩà¤²à¥įà¤": 3881,
      "à¤¸à¥ĩĠà¤¬à¤¾à¤¤": 3882,
      "Ġcustomer": 3883,
      "Ġà¤ķà¤°à¤µ": 3884,
      "cons": 3885,
      "llĠ": 3886,
      "ľà¤¼à¥įà¤¯à¤¾à¤¦à¤¾Ġà¤": 3887,
      ".ĠĠokay,Ġ": 3888,
      "5432": 3889,
      "ptĠ": 3890,
      "yb": 3891,
      "eĠyou": 3892,
      "Ġcour": 3893,
      "iĠhaveĠ": 3894,
      "program": 3895,
      "likeĠaĠ": 3896,
      "Ġsafe": 3897,
      "low": 3898,
      "vinc": 3899,
      "Ġon": 3900,
      "eĠforĠ": 3901,
      ".Ġi": 3902,
      "ory": 3903,
      "edĠtheĠ": 3904,
      "ĠcardĠ": 3905,
      "à¤¿à¤ķà¥įà¤°Ġà¤": 3906,
      "à¤¿à¤ķà¥īà¤°à¥įà¤¡": 3907,
      "¯à¤¹à¤¾à¤ģ": 3908,
      "à¤¿à¤¸à¥įà¤Łà¥įà¤°": 3909,
      "à¤¾Ġà¤®à¥Īà¤¸à¥ĩà¤ľ": 3910,
      "à¤°à¤ķà¤¾à¤°": 3911,
      "ĠtakeĠcare": 3912,
      "Ġcheck": 3913,
      "Ġ4": 3914,
      "Ġà¤ķà¤Ĥà¤ªà¤¨": 3915,
      ",Ġrohan": 3916,
      "Ġà¤ĩà¤¸à¤ķ": 3917,
      "Ġà¤łà¥Ģà¤ķĠà¤¹à¥Ĥà¤ģ,Ġà¤": 3918,
      "extrem": 3919,
      "Ĩà¤ĸà¤¿à¤°": 3920,
      "Ġà¤¸à¥ĩĠà¤¹": 3921,
      "Ġà¤®à¤¾à¤Ĥà¤Ĺ": 3922,
      "à¤¾à¤Ĥà¤ļ": 3923,
      "goodĠtoĠbeĠ": 3924,
      "à¤¾à¤ķà¤°Ġà¤": 3925,
      "¯à¥ĩĠà¤¸à¤¬": 3926,
      "Ĩà¤Ĺà¥ĩĠà¤¬à¤¢à¤¼": 3927,
      "à¤µà¤¾à¤Ĥà¤¸": 3928,
      "ıà¤¨": 3929,
      "Ġà¤ķà¥ĢĠà¤ķ": 3930,
      "à¥Ĥà¤ª": 3931,
      "ingĠup": 3932,
      "à¤¾Ġà¤¥à¤¾Ġà¤ľ": 3933,
      "īà¤¸à¤®à¥ĩà¤ĤĠà¤": 3934,
      "Ġà¤Ĺà¥įà¤°": 3935,
      ".ĠalwaysĠ": 3936,
      "cod": 3937,
      "Ġà¤¸à¤ļ": 3938,
      "à¤¿à¤¯à¤¾à¤ģ": 3939,
      "Ġà¤Ńà¥Ģ,Ġà¤": 3940,
      "prompt": 3941,
      "ible": 3942,
      "Ġà¤ıà¤ķà¥įà¤¸à¥ĩà¤¸": 3943,
      "ituation": 3944,
      "correct": 3945,
      "à¥Īà¤ļ": 3946,
      "Ġà¤ķà¥ĢĠà¤ľ": 3947,
      "Ġà¤ķà¥ĢĠà¤¤à¤°à¤«": 3948,
      "s,ĠandĠ": 3949,
      "à¤¿à¤¬": 3950,
      "à¥įà¤§": 3951,
      "sĠin": 3952,
      "à¥ĩà¤¶à¤¨à¤²": 3953,
      "ĠofĠ": 3954,
      "ureĠtoĠ": 3955,
      "à¤°Ġà¤ªà¤°Ġà¤ķà¥īà¤²": 3956,
      "e.Ċ": 3957,
      "à¥ģà¤¶à¥įà¤ķà¤¿à¤²": 3958,
      "fici": 3959,
      "Ġinformation": 3960,
      "Ġter": 3961,
      "item": 3962,
      "à¤°Ġà¤ķà¥ĭĠà¤": 3963,
      "ľà¤²à¥įà¤¦à¥Ģ": 3964,
      "¢à¥Ĥà¤Ĥà¤¢": 3965,
      "ially": 3966,
      "ĩà¤²": 3967,
      "à¥įà¤¯à¥ģà¤¨": 3968,
      "à¤¿à¤Ĥà¤¹": 3969,
      ",ĠsoĠ": 3970,
      "²à¥ĭà¤Ĺà¥ĭà¤Ĥ": 3971,
      "Ġà¤ħà¤ļà¥įà¤Ľà¤¾Ġà¤°à¤¹": 3972,
      "numberĠisĠ": 3973,
      "uspiciousĠ": 3974,
      "Ġprompt": 3975,
      "-à¤Ł": 3976,
      "ez": 3977,
      "Ĺà¤Ĥà¤Ńà¥Ģ": 3978,
      "step": 3979,
      "à¥ĢĠà¤ķà¤¾Ġà¤": 3980,
      "à¤²à¥įà¤¡": 3981,
      "Ġà¤Ńà¤°": 3982,
      "ľà¤²à¥įà¤¦à¤¬à¤¾à¤ľ": 3983,
      "receivedĠ": 3984,
      "°à¥ĭà¤ķ": 3985,
      "ĠaurĠ": 3986,
      "websit": 3987,
      "ari": 3988,
      "à¥īà¤Ĺ": 3989,
      "?ĠĠoh": 3990,
      "à¥Ģà¤®à¤¤": 3991,
      "à¤¿à¤ľà¥įà¤ŀ": 3992,
      "zaroor": 3993,
      "wereĠ": 3994,
      "µà¥ĩĠà¤": 3995,
      "Ġà¤®à¥ī": 3996,
      "Ġà¤¨à¤ı": 3997,
      "à¤¾à¤¹à¤ķ": 3998,
      "Ġà¤°à¤¹à¤¾Ġà¤¥à¤¾à¥¤Ġà¤": 3999,
      "awareĠ": 4000,
      "ĠwillĠreceiveĠ": 4001,
      "Ġteam": 4002,
      "à¥ĭà¤¬à¤¾à¤ĩà¤²Ġà¤¨à¤Ĥà¤¬": 4003,
      "Ġtempor": 4004,
      "Ġà¤¹à¥Ī,Ġà¤Ķà¤°Ġà¤": 4005,
      "ıà¤ķĠà¤®à¥Īà¤¸à¥ĩà¤ľĠà¤Ĩà¤¯": 4006,
      "sĠforĠtheĠ": 4007,
      "ream": 4008,
      "itself": 4009,
      ",Ġ'": 4010,
      "ĠandĠs": 4011,
      "hej": 4012,
      "n't": 4013,
      "¬à¤¾à¤¤Ġà¤": 4014,
      "Ġà¤¸à¤°,Ġà¤": 4015,
      "imperson": 4016,
      "à¥įà¤¸Ġà¤ķà¥ĭĠà¤": 4017,
      "iĠcanĠ": 4018,
      "à¥Īà¤¨à¥ĩà¤ľ": 4019,
      "bhiĠ": 4020,
      "ľà¤°": 4021,
      "oup": 4022,
      ",ĠitĠ": 4023,
      "Ġà¤²à¥ĩà¤ķ": 4024,
      "e.ĠiĠ": 4025,
      "withoutĠ": 4026,
      "officialĠwebsiteĠ": 4027,
      "Ġà¤Ĺà¤¯à¤¾à¥¤Ġà¤": 4028,
      "ĠthatĠmakesĠsense.Ġ": 4029,
      "fri": 4030,
      "à¥ĭà¤ĸ": 4031,
      "ched": 4032,
      "²à¤Ĺà¤¤à¤¾Ġà¤¹à¥Ī": 4033,
      "ĠSMS": 4034,
      "hisĠ": 4035,
      "ed?Ġ": 4036,
      "Ġfre": 4037,
      "research": 4038,
      "Ġà¤ķà¤°à¤¨à¥ĩĠà¤ķà¥ĩĠà¤²à¤¿à¤ı,Ġà¤": 4039,
      "Ġà¤ĩà¤¤à¤¨": 4040,
      "SMS": 4041,
      "ecureĠ": 4042,
      "oment": 4043,
      "Ġà¤¨à¥ĩĠà¤": 4044,
      "stant": 4045,
      "updateĠ": 4046,
      "offers": 4047,
      "regardingĠ": 4048,
      "decision": 4049,
      "iĠassistĠyou": 4050,
      "nic": 4051,
      "à¥Īà¤¦": 4052,
      "ouch": 4053,
      "Ġcustom": 4054,
      "Ġpremium": 4055,
      "Ġà¤¦à¤¿à¤¨": 4056,
      "à¥ĢĠà¤ķà¤¿": 4057,
      "à¤¿à¤¶à¤¨": 4058,
      "Ġà¤ªà¤°Ġà¤ľ": 4059,
      "processing": 4060,
      "itizen": 4061,
      "Ġapplication": 4062,
      "ĠtooĠgoodĠtoĠbeĠtru": 4063,
      "gam": 4064,
      "¬à¤¹": 4065,
      "Ġà¤ķà¥ĩĠà¤ķ": 4066,
      "à¤Ĺà¤¾à¥¤Ġà¤": 4067,
      "isn'tĠ": 4068,
      "ĠaĠlink": 4069,
      "?ĠĠno": 4070,
      "i'mĠdoingĠ": 4071,
      "à¥ĢĠà¤ľà¤Ĺà¤¹": 4072,
      "ľà¤²à¥įà¤¦à¥ĢĠà¤¸": 4073,
      "effici": 4074,
      "lockĠ": 4075,
      "ignificant": 4076,
      "quiteĠs": 4077,
      "uccessful": 4078,
      "à¤²Ġà¤®": 4079,
      "Ġà¤ªà¥ĭà¤°à¥įà¤Łà¤²": 4080,
      "withĠtheĠ": 4081,
      "à¤¾Ġà¤ļà¤²Ġà¤°à¤¹": 4082,
      "readyĠ": 4083,
      "oftenĠ": 4084,
      "accountĠ": 4085,
      "à¥Ģà¤ļ": 4086,
      "Ġà¤¹à¤¾à¤¯": 4087,
      "Ġà¤ªà¥Īà¤ķà¥ĩà¤ľ": 4088,
      "à¥įà¤¸Ġà¤ķà¥ĩĠà¤²à¤¿à¤ı": 4089,
      "Ġà¤¹à¥ĭà¥¤Ġà¤": 4090,
      "à¤¨à¤¾Ġà¤ħà¤ļà¥įà¤Ľ": 4091,
      "Ġà¤¡à¤¿à¤ªà¤¾à¤°à¥įà¤Łà¤®à¥ĩà¤Ĥà¤Ł": 4092,
      "callingĠ": 4093,
      "Ġà¤¹à¥ĭĠà¤ľà¤¾à¤ıà¤Ĺà¤¾à¥¤Ġà¤": 4094,
      "initial": 4095
    },
    "merges": [
      "à ¤",
      "Ġ à¤",
      "à ¥",
      "à¤ ¾",
      "à¥ ĩ",
      "à¤ °",
      "Ġà¤ ķ",
      "e Ġ",
      "à¥ į",
      "à¤ ¿",
      "à¥ Ģ",
      "à¤¿ à¤",
      "à¥ĩ Ġà¤",
      "à¥į à¤",
      "à¤¾ à¤",
      "à¤ Ĥ",
      "Ġ t",
      "à¥ ĭ",
      "Ġà¤ ¹",
      "à¥ Ī",
      "Ġ a",
      "à¤ ķ",
      "à¤ ¨",
      "i n",
      "¤ Ġà¤",
      ". Ġ",
      "à¤¾ Ġà¤",
      "o u",
      "s Ġ",
      "à¤ ¸",
      "t Ġ",
      "Ġt h",
      "à¥ ģ",
      "à¥Ģ Ġà¤",
      "à¤ ¹",
      "e r",
      "o n",
      "à¤ ²",
      "à¤° Ġà¤",
      "à¤ ®",
      "à¥ ¤Ġà¤",
      "e n",
      "Ġà¤¹ à¥Ī",
      "Ġ s",
      "o r",
      "a n",
      "r e",
      ", Ġà¤",
      "i t",
      "à¤ ¤",
      "a l",
      "a t",
      "d Ġ",
      "in g",
      ", Ġ",
      "y Ġ",
      "à¤ Ĺ",
      "a r",
      "à¥ĩ à¤Ĥ",
      "e s",
      "y ou",
      "Ġà¤ ¸",
      "à¤ ª",
      "à¥ĩ à¤",
      "à¥ĭ Ġà¤",
      "à¥ Ĥ",
      "i c",
      "o Ġ",
      "à¤ ¼",
      "à¥Ī à¤Ĥ",
      "i s",
      "Ġà¤ķ à¥ĩĠà¤",
      "à¤¾ à¤°",
      "à¥į à¤°",
      "à¥ģ à¤",
      "Ġà¤ ®",
      "i on",
      "r o",
      "e l",
      "e d",
      "Ġ c",
      "Ġa n",
      "f or",
      "i sĠ",
      "Ġth eĠ",
      "à¤¿à¤ ı",
      "à¤ Ł",
      "Ġ p",
      "h a",
      "Ġà¤ķ à¤°",
      "à¥įà¤ ¯",
      "à¤° à¥įà¤",
      "à¥ĩĠà¤ ¹",
      "Ġà¤ ª",
      "Ġà¤ ¬",
      "e c",
      "à¤¿à¤ ¯",
      "? Ġ",
      "à¤¾ Ġà¤¹à¥Ī",
      "i Ġ",
      "° à¤¹",
      "u r",
      "à¤¾à¤ ¨",
      "a y",
      "Ġt oĠ",
      "u s",
      "à¥ ¤",
      "t h",
      "ı à¤ķ",
      "i l",
      "à¤ ļ",
      "ing Ġ",
      "² à¤¿à¤ı",
      "à¤ ľ",
      "o f",
      "en t",
      "à¤ ¡",
      "à¤ ¬",
      "o m",
      "v er",
      "Ĩ à¤ª",
      "à¥įà¤ Ł",
      "à¤¿à¤ ¸",
      "à¤¿à¤ ²",
      "you r",
      "Ġà¤ķà¥ĩĠà¤ ²à¤¿à¤ı",
      "i f",
      "à¥ĩ Ġà¤ķ",
      "i m",
      "Ġà¤ ¤",
      "l e",
      "Ķ à¤°Ġà¤",
      "at ion",
      "e dĠ",
      "Ġ m",
      "à¥Ī à¤¸",
      "a c",
      "Ġà¤ ħ",
      "al l",
      "à¤ ¦",
      "Ġà¤ ľ",
      "Ġ d",
      "à¤¾ à¥¤Ġà¤",
      "v eĠ",
      "à¤¨ à¥ĩĠà¤",
      "à¥ĩĠà¤¹ à¥Īà¤Ĥ",
      "u n",
      "à¤¾ Ġà¤¹",
      "à¤² Ġà¤",
      "à¥ ī",
      "à¤¹ à¥Ģ",
      "o w",
      "i r",
      ".Ġ Ġ",
      "a s",
      "Ĩà¤ª à¤ķ",
      "Ġà¤ ¯",
      "i g",
      "à¥ģ à¤®",
      "à¤¿à¤ ķ",
      "à¥įà¤ ķ",
      "Ġa Ġ",
      "e x",
      "i tĠ",
      "à¤ ¯",
      "µ à¤¾à¤",
      "Ġth isĠ",
      "Ġà¤¹ à¤®",
      "ĩ à¤¸",
      "à¥įà¤ ¸",
      "à¥Ĥ à¤",
      "Ġt o",
      "k Ġ",
      "l o",
      "Ġan dĠ",
      "a m",
      "a Ġ",
      "à¤¾ Ġà¤ķ",
      "à¤¾à¤ ¤",
      "p ro",
      "à¥ĭ à¤Ĥ",
      "Ġà¤ķà¤° à¤¨",
      "c h",
      "® à¥Īà¤Ĥ",
      "e t",
      "à¥Ģ Ġà¤¹à¥Ī",
      "0 0",
      "Ġà¤ ¨",
      "es s",
      "e m",
      "s t",
      "à¤ «",
      "re c",
      "k eĠ",
      "à¥ĩĠà¤ ®",
      "en tĠ",
      "ou n",
      "à¥ĩà¤ ¶",
      "Ń à¥ĢĠà¤",
      "Ġà¤ ¦",
      "i al",
      "Ġà¤ķ à¤°Ġà¤",
      "Ġ w",
      "à¥ģ à¤°",
      "u p",
      "à¤¹à¥Ģ à¤Ĥ",
      "à¥Ĥà¤ ģ",
      "u m",
      "à¥Ģ Ġà¤ķ",
      "g o",
      "l i",
      "à¤¾à¤ ĩ",
      "à¤ Ī",
      "a g",
      "à¥ĢĠà¤ ¸",
      "Ġà¤¹ à¥ĭ",
      "à¥ĩà¤Ĥ Ġà¤",
      "à¤¾à¤ ģ",
      "à¥Ĥ à¤°",
      "à¥įà¤ ¹",
      "Ġa c",
      "i d",
      "à¥ĩà¤ ľ",
      "q u",
      "à¤¾ ,Ġà¤",
      "à¥ĩĠà¤ ¸",
      "r eĠ",
      "' sĠ",
      "à¤¿à¤ Ĥ",
      "à¤¿à¤ Ł",
      "à¥Ģ à¤ķ",
      "à¤¹ à¥ģà¤",
      "it h",
      "à¥ĩ Ġà¤ķà¥ĩĠà¤²à¤¿à¤ı",
      "à¤¿à¤ ¨",
      "à¤¤ à¥ĩĠà¤¹à¥Īà¤Ĥ",
      "u t",
      "for Ġ",
      "l y",
      "Ġà¤ ²",
      "à¤¹à¥ģà¤ ¤Ġà¤",
      "à¥ĩ à¤ķ",
      "m a",
      "Ġà¤ķ à¥įà¤¯",
      "à¤¾à¤ ¹",
      "ou r",
      "à¤¾Ġà¤ ¸",
      "o l",
      "ľ à¤¼",
      "Ġ h",
      "of f",
      "eĠ t",
      "e sĠ",
      "Ġ f",
      "à¤ļ à¥įà¤",
      "à¤¡ à¤¼",
      ".Ġ w",
      "à¤¾Ġà¤¹à¥Ī à¥¤Ġà¤",
      "¤ à¥ĭĠà¤",
      "¯ à¤¹",
      "à¥ĩĠà¤ ¬",
      "à¤° Ġà¤ķ",
      "Ġà¤ °à¤¹",
      "Ġ b",
      "eĠ s",
      "r i",
      "Ġa b",
      "a tĠ",
      "à¥ĩĠà¤ ª",
      "¤ à¥ģà¤®",
      "à¤¾à¤ ®",
      "à¥įà¤° à¤¿à¤¯",
      "Ġà¤ °",
      "t er",
      "à¤ļà¥įà¤ Ľ",
      "à¥ĩ à¤°",
      "u l",
      "Ġa l",
      "ig h",
      "à¥ģ à¤²",
      "à¤¾Ġà¤ ¥",
      "à¥ĩà¤Ĥ à¤Ł",
      "c on",
      "Ġà¤¹à¥Ī à¥¤Ġà¤",
      "at eĠ",
      "Ġp ro",
      "you Ġ",
      "o d",
      "Ġth e",
      "ur eĠ",
      "e .Ġ",
      "à¥įà¤ ²",
      "à¤ µ",
      "ac t",
      "à¤Ĥ à¤Ł",
      "?Ġ Ġ",
      "à¤¨ à¤¾Ġà¤",
      "o p",
      "à¥ĭ à¤Ĺ",
      "à¥ģà¤ Ŀ",
      "i v",
      "Ġa reĠ",
      "s .Ġ",
      "Ġà¤ķ à¥ĢĠà¤",
      "à¥ĭ à¤Ī",
      "r a",
      "à¤¾à¤ ¯",
      "Ġà¤ ¶",
      "à¤¾à¤ ²",
      "n e",
      "an t",
      "Ġà¤ Ĩ",
      "Ġà¤ Ķà¤°Ġà¤",
      "w ith",
      "Ġth atĠ",
      "n o",
      "à¥ĩà¤ Ł",
      "l yĠ",
      "Ġth an",
      "Ġà¤ ıà¤ķ",
      "à¤°à¥įà¤ ®",
      "à¤¾à¤ ¸",
      "à¤¿à¤² à¥įà¤ķ",
      "a il",
      "Ġà¤ķ à¤¿",
      "à¥ĩ à¤¸",
      "ī à¤¸",
      "Ġab ou",
      "à¤ ¤Ġà¤",
      "à¥ģ à¤ķ",
      "Ġà¤® à¥ĩà¤Ĥ",
      "an d",
      "µà¤¾à¤ ²",
      "² à¤Ĺ",
      "à¤² à¥įà¤",
      "Ġ in",
      "re s",
      "l in",
      "à¤¾à¤° à¥ĩĠà¤®",
      "â Ĥ",
      "âĤ ¹",
      "¨ à¤¹à¥Ģà¤Ĥ",
      "m entĠ",
      "i veĠ",
      "à¤ľ à¤¼",
      "c om",
      "ha veĠ",
      "à¤¾Ġà¤¹ à¥Ĥà¤ģ",
      "if ic",
      "à¥ Į",
      "à¥ĩà¤¶ à¤¨",
      "à¤° à¥Ĥà¤°",
      "a b",
      "m ent",
      "a d",
      "à¤¾à¤ ı",
      "h ar",
      "à¥ĢĠà¤ ¬",
      "à¥ĩ à¤®",
      "Ġan d",
      "à¥ģà¤ Ľ",
      "p or",
      "h ow",
      "Ġt r",
      "à¤¿à¤¸ à¥įà¤Ł",
      "Ġs ec",
      "Ġac c",
      "en s",
      "Ġth at",
      "Ġà¤ķà¥įà¤¯ à¤¾Ġà¤",
      "er Ġ",
      "p ec",
      "ro m",
      "Ġà¤ µ",
      "el l",
      "ħ à¤ļà¥įà¤Ľ",
      "ł à¥Ģà¤ķ",
      "f e",
      "Ġà¤ķà¥ĩĠà¤ ¬",
      "o s",
      "ļ à¤¾à¤¹",
      "Ġà¤ķ à¤¾Ġà¤",
      "l eĠ",
      "m ed",
      "Ġà¤ķ à¥ĭĠà¤",
      "à¤°Ġà¤ ª",
      "il l",
      "i '",
      "p le",
      "f ir",
      "à¥įà¤° à¥ĭ",
      "à¤¾à¤ Ĥ",
      "y es",
      "à¥įà¤ ¤",
      "an c",
      "Ġà¤¹ à¥ĭĠà¤",
      "eĠ th",
      "n ow",
      "ħ à¤ª",
      "à¤¿à¤Ĥ à¤Ĺ",
      "ĳ à¤«",
      "e ,Ġ",
      ". .",
      "à¤¾à¤ ¦",
      "Ġà¤ «",
      "d i",
      "à¤¿à¤ ¶",
      "à¥ĩ à¤²",
      "Ġà¤® à¥Īà¤Ĥ",
      "¯ à¥ĩĠà¤",
      "el y",
      "es t",
      "à¤²Ġà¤ °à¤¹",
      "Ġa s",
      "ha tĠ",
      "ī à¤¨",
      "à¤¾à¤° à¥ĢĠà¤",
      "à¤²à¥įà¤ ¦",
      "â Ģ",
      "à¤ķ à¤¤",
      "c ess",
      "y a",
      "à¤¾à¤°à¥ĩĠà¤® à¥ĩà¤Ĥ",
      "off ic",
      "à¥Ĥ à¤Ĥ",
      "Ġà¤¹à¥Ī ,Ġà¤",
      "à¤¿à¤²à¥įà¤ķ à¥ģà¤²",
      "' s",
      "ou l",
      "med i",
      "Ġà¤¸ à¥ĩĠà¤",
      "Ĳ à¤¸",
      "Ġs t",
      "im medi",
      "à¥ĩ à¤¨",
      "ħ à¤Ĺ",
      "p p",
      "à¥ģà¤Ŀ à¥ĩĠà¤",
      "us tĠ",
      "h Ġ",
      "Ġthan kĠ",
      "à¥ī à¤²",
      "Ġà¤¹ à¤¾à¤ģ",
      "à¤ ı",
      "Ġà¤ Ĩà¤ªà¤ķ",
      "en c",
      "à¤ķ à¥įà¤",
      "um b",
      "¤à¥ģà¤® à¥įà¤¹",
      "k ar",
      "w h",
      "p ay",
      "d e",
      "Ġà¤¤ à¥ģà¤®",
      "your Ġ",
      "fir m",
      "à¥ģà¤° à¤Ĥ",
      "à¥ĢĠà¤ ª",
      "¬ à¤¹à¥ģà¤¤Ġà¤",
      "t ion",
      "b eĠ",
      "! Ġ",
      "all yĠ",
      "al Ġ",
      "n umb",
      "à¤ ¶",
      "por t",
      "à¤ §",
      "er s",
      "Ġc on",
      "et ail",
      "go od",
      "à¤ Ńà¥ĢĠà¤",
      "li keĠ",
      ", Ġs",
      "à¤¾ à¥¤",
      "offic ial",
      "an s",
      "à¤¿à¤ ¤",
      "a k",
      "à¥ģà¤ķ à¥įà¤°à¤¿à¤¯",
      "à¤¿à¤ µ",
      "Ġà¤ª à¤°Ġà¤",
      "w a",
      "00 0",
      "Ġà¤ķà¤°à¤¨ à¥ĩĠà¤ķà¥ĩĠà¤²à¤¿à¤ı",
      "it 'sĠ",
      "à¥ĢĠà¤¹à¥Ī à¥¤Ġà¤",
      "it y",
      "à¥ĩ ,Ġà¤",
      "âĢ Ļ",
      "ou g",
      "à¤¾Ġà¤ ľ",
      "à¤ ¢",
      "à¤¾à¤ ī",
      "f rom",
      "is t",
      "ha i",
      "à¤ ĸ",
      "à¥ģ à¤¨",
      "u re",
      "c l",
      "à¥Ģ Ġà¤¹",
      "it yĠ",
      "à¤¤ à¤¾Ġà¤¹à¥Ī",
      "Ġà¤¤ à¥ĭĠà¤",
      "à¤°Ġà¤ ¸",
      "Ġà¤ ļ",
      "Ġà¤¯ à¤¹",
      "Ġà¤¨ à¤¹à¥Ģà¤Ĥ",
      "o k",
      "Ġacc oun",
      "ar eĠ",
      "w ay",
      "v ic",
      "oul dĠ",
      "Ġà¤ Ĺ",
      "à¤¾à¤ µ",
      "à¥ĭ Ġà¤ķ",
      "un d",
      "of Ġ",
      "à¤¾Ġà¤ ª",
      "à¤¾à¤ «",
      "à¥ĭ à¤²Ġà¤°à¤¹",
      "us t",
      "v i",
      "Ġa Ġs",
      "« à¤¿",
      "² à¥ĩà¤ķ",
      "à¥ĩ à¥¤Ġà¤",
      "¬ à¤¸",
      "a p",
      "à¥Ģ à¥¤Ġà¤",
      ". ĠthisĠ",
      "d ay",
      "re g",
      "an Ġ",
      "ver yĠ",
      "¤ à¤°",
      "Ġa d",
      "à¤¾à¤¨ à¤ķ",
      "Ġà¤¹à¤® à¤¾à¤°",
      "à¤¢ à¤¼",
      "o t",
      "à¤ķà¥įà¤ ·",
      "igh t",
      "ar d",
      "Ġthe yĠ",
      "Ġà¤ķà¤°Ġà¤ °à¤¹",
      "r .Ġ",
      "à¤Ĥ à¤¬",
      "Ġà¤® à¤¿à¤²",
      "à¥ĭ Ġà¤¸",
      "Ġà¤ķà¥ĩĠà¤¬ à¤¾à¤°à¥ĩĠà¤®à¥ĩà¤Ĥ",
      "Ġà¤¹ à¥ĢĠà¤",
      "Ġ '",
      "Ġà¤ ¡",
      "à¤¾à¤° à¥įà¤",
      "à¤¾à¤ī à¤Ĥà¤Ł",
      "à¤ Ŀ",
      "ed ĠtoĠ",
      "à¥ĭ à¤¡à¤¼",
      "ific ation",
      "Ġà¤ Ń",
      "rec e",
      "if Ġ",
      "i' m",
      "à¥ģà¤° à¤ķà¥įà¤·",
      "u ch",
      "à¥Īà¤¸ à¥ĩà¤ľ",
      "Ġc om",
      "i Ġs",
      "à¤°à¥įà¤ Ł",
      "à¤¾à¤ ķ",
      "à¥ĩà¤® à¥ĩà¤Ĥà¤Ł",
      "oun d",
      "à¥Īà¤¸ à¥ĩĠà¤",
      "it eĠ",
      "p e",
      "à¤¨ à¥ĩĠà¤ķ",
      "à¥ģà¤°à¤Ĥ à¤¤Ġà¤",
      ".Ġw eĠ",
      "ple as",
      "Ġabou tĠ",
      "j ustĠ",
      ", ĠandĠ",
      "on eĠ",
      "ess ag",
      "à¤ Ń",
      "in Ġ",
      "' tĠ",
      "ar dĠ",
      "m yĠ",
      "à¤¾Ġà¤ķ à¤¿",
      "à¤ª à¤¯",
      "h an",
      "à¥ĢĠà¤ ľ",
      "µ à¥ĭĠà¤",
      "à¤¹ à¤²",
      "en d",
      "Ġà¤ķà¤°Ġà¤ ¦",
      "for m",
      "à¥ĩà¤ ĸ",
      "à¤¾ ?",
      "p ri",
      "w ill",
      "à¤¾Ġà¤ ®",
      "b e",
      "an dĠ",
      "h el",
      "c am",
      "Ġà¤ ĩà¤¸",
      "Ġà¤¬ à¤¹à¥ģà¤¤Ġà¤",
      "p ar",
      "c all",
      "à¥ĭ à¤Ł",
      "u tĠ",
      "à¤ķ à¤¾à¤īà¤Ĥà¤Ł",
      "à¤¾Ġà¤ ¦",
      "f in",
      "Ġa m",
      "or Ġ",
      "à¤¿à¤ «",
      "Ġà¤¹à¤¾à¤ģ ,Ġà¤",
      "à¤¾à¤ı à¤Ĺ",
      "à¤¾à¤ĩ à¤¨",
      "Ġà¤® à¥ĩà¤ĤĠà¤",
      "à¤ µà¤¾à¤",
      "s ,Ġ",
      "Ġà¤ ¥",
      "ĸ à¤¾à¤¸",
      "Ł à¥įà¤°",
      "Ġà¤ķ à¥ĭà¤Ī",
      ", 000",
      "à¤¨ à¥įà¤",
      ".Ġ iĠ",
      "²à¥ĩà¤ķ à¤¿à¤¨",
      "y Ġs",
      "à¤¾ à¤°Ġà¤",
      "à¤¾Ġà¤ ¬",
      "à¤® à¤Ŀ",
      "ic k",
      "i z",
      "om e",
      "à¥įà¤ ª",
      "es sĠ",
      "w eĠ",
      "à¤ķ à¥ĩĠà¤",
      "ļà¤¾à¤¹ à¤¿à¤ı",
      "Ġà¤¹à¥Ī à¤Ĥ",
      "u c",
      "h e",
      "Ġà¤¶ à¥ģà¤ķà¥įà¤°à¤¿à¤¯",
      "à¥įà¤°à¥ĭ à¤¸",
      "à¥ĭ à¤¨",
      "f ul",
      "yes ,Ġ",
      "Ġabou t",
      "à¤¤à¥ĩĠà¤¹à¥Īà¤Ĥ à¥¤Ġà¤",
      "oug h",
      "Ġà¤ķ à¥ģà¤Ľ",
      "Ġà¤¤à¥ģà¤® à¥įà¤¹",
      "Ġà¤ ĩ",
      "ľ à¤²à¥įà¤¦",
      ". ĠtheĠ",
      "ľà¤¼ à¤°à¥Ĥà¤°",
      "numb er",
      "à¤¿à¤¸ à¥ĢĠà¤",
      "on e",
      "Ġc all",
      "à¤¾Ġà¤ ²à¤Ĺ",
      "à¥įà¤¯ à¤¾à¤¦",
      "h i",
      "er eĠ",
      "à¤¿à¤ ª",
      "Ġà¤ħ à¤ª",
      "con firm",
      "Ġth is",
      "a yĠ",
      "i ou",
      "eĠt oĠ",
      "Ġsec ureĠ",
      "o h",
      "d etail",
      "p er",
      "à¥ĩ à¤Ĺ",
      "à¤¸ à¤²",
      "à¥ģ à¤¤",
      "ver if",
      "ur g",
      "Ġà¤¯ à¥ĩĠà¤",
      "à¥ĭ ,Ġà¤",
      "à¥¤ Ġà¤¹à¤®",
      "à¤Ĥ à¤¦",
      "m e",
      "à¥ĩà¤ ¡",
      "5 00",
      "r ight",
      "ħà¤Ĺ à¤°Ġà¤",
      "® à¥ĩà¤°",
      "² à¥ĭà¤Ĺ",
      "à¥Ģ ,Ġà¤",
      "Ġà¤ķ à¥Īà¤¸",
      "Ġa pp",
      "à¤¸ à¥ĩĠà¤",
      "® à¥ģà¤Ŀà¥ĩĠà¤",
      "ver ification",
      "all y",
      "a in",
      "à¥įà¤°à¥ĭà¤¸ à¥ĩà¤¸",
      "wa sĠ",
      "el yĠ",
      "o c",
      "ec t",
      "m r.Ġ",
      "Ĺ à¤¯",
      "à¥ĢĠà¤ ®",
      "à¥įà¤¯ à¥ĭ",
      "o dĠ",
      "ĠthankĠ youĠ",
      "à¤¾Ġà¤¹à¥Ī ,Ġà¤",
      "ig n",
      "Ġan Ġ",
      "à¤¾à¤ ¤Ġà¤",
      "Ġà¤ķà¤°Ġà¤ ¸",
      "e p",
      "ation Ġ",
      "rec t",
      "an k",
      "har ma",
      "à¥ĢĠà¤¬ à¤¾à¤¤",
      "f er",
      "re qu",
      "us u",
      "à¥ĩ Ġ",
      "Ġtr ans",
      "Ġth es",
      "à¤¨ à¤²",
      "Ġà¤ Ńà¥ĢĠà¤",
      "«à¤¿ à¤°Ġà¤",
      "à¤¨à¥įà¤ «",
      "Ġà¤¹à¥ĭĠà¤ ľ",
      "Ġà¤² à¤Ĺ",
      "à¤¿à¤ ¤Ġà¤",
      "à¥Ģ à¤ľà¤¼",
      "à¥Ģ Ġà¤¹à¥ĭ",
      "pro cess",
      "Ġp ay",
      "lin k",
      "immedi at",
      "er vic",
      "v id",
      "ac k",
      "à¤¹ à¥ģà¤¤",
      "à¥¤ Ġ",
      "s ound",
      "Ġà¤¸ à¤¹à¥Ģ",
      "e ar",
      "Ġac t",
      "no tĠ",
      "ou t",
      "e b",
      "à¥Ī à¤ķ",
      "¯ à¤¾Ġà¤",
      "à¤°à¥įà¤ ¡",
      "on Ġ",
      "ing .Ġ",
      "ol ut",
      "à¥ĭ à¤ļ",
      "re m",
      "à¥įà¤ ®",
      "pleas eĠ",
      "à¤¾à¤ Ī",
      "à¤¾à¤¯ à¤¦",
      "an tĠ",
      "à¤°à¥įà¤ ¸",
      "s e",
      "Ġà¤¬ à¤¿à¤²à¥įà¤ķà¥ģà¤²",
      "immedi ateĠ",
      "li y",
      "b utĠ",
      "re d",
      "Ġthat 'sĠ",
      "à¤¾à¤ ¥",
      "à¥¤ Ġà¤ķ",
      "p l",
      "Ġà¤ łà¥Ģà¤ķ",
      "ex act",
      "Ġh el",
      "à¥Į à¤°Ġà¤ª",
      "w or",
      "à¤¿à¤¶ à¤¿à¤¯",
      "à¥Ģ à¤¸",
      "en Ġ",
      "à¥¤ Ġà¤ķà¥įà¤¯à¤¾Ġà¤",
      "ĠaĠ b",
      "Ġaccoun tĠ",
      "à¤¿à¤Ĥ à¤ķ",
      "¤à¥ģà¤®à¥įà¤¹ à¤¾à¤°",
      "go odĠ",
      "à¤¿à¤ķ à¥įà¤¯à¥ĭ",
      "Ġà¤ķà¤° à¤¨à¥ĩĠà¤",
      "m essag",
      "qu iteĠ",
      "à¤¾Ġà¤¹à¥Ĥà¤ģ à¥¤Ġà¤",
      "ĠtheĠ s",
      "pay mentĠ",
      "Ġà¤¯ à¤¾Ġà¤",
      "¶ à¤¨",
      "à¥ĩĠà¤¹à¥Īà¤Ĥ à¥¤Ġà¤",
      "¬ à¤¿à¤²à¥įà¤ķà¥ģà¤²",
      "igh tĠ",
      "Ġs a",
      "pri ya",
      "à¥Ģ à¤®",
      "it 's",
      "à¤¤ à¤¾Ġà¤¹à¥Īà¥¤Ġà¤",
      "ħ à¤ķà¤¾à¤īà¤Ĥà¤Ł",
      "h iĠ",
      ", Ġa",
      "Ġà¤¹à¥Ī ?",
      "à¤¿à¤ ĸ",
      "k now",
      "ex tĠ",
      "à¤¦ à¤¦",
      "rece iv",
      "off er",
      "in d",
      "Ġà¤ķ à¤¿à¤¯",
      "Ġth r",
      "c a",
      "o ver",
      "keĠ liy",
      "à¤¾Ġà¤¹à¥Ī ?",
      "Ķ à¤°",
      "à¤Ĥ à¤¡",
      "à¥Īà¤Ĥ à¤ķ",
      "ĳà¤« à¤¿à¤¶à¤¿à¤¯",
      "ing Ġs",
      "Ġà¤ª à¥įà¤°",
      "w hatĠ",
      "à¥ģ à¤ªà¤¯",
      "y st",
      "Ġà¤ħ à¤ļà¥įà¤Ľ",
      "à¤¾Ġà¤¥ à¤¾à¥¤Ġà¤",
      "e tĠ",
      "à¤¿à¤ ľ",
      "ıà¤ķ Ġà¤",
      "pro c",
      "no t",
      "¤ à¥ģà¤°à¤Ĥà¤¤Ġà¤",
      "e '",
      "u b",
      ",Ġà¤ ľ",
      "âĢĻ sĠ",
      "à¤® à¥ĩà¤Ĥà¤Ł",
      "à¥ĩĠà¤¹ à¥ĭ",
      "à¥ĭ à¤¸",
      "g u",
      "ĠthankĠ you",
      "e f",
      "n eĠ",
      "Ġà¤ķà¤°à¤¨ à¥ĩĠà¤ķ",
      "d is",
      "Łà¥įà¤° à¤¾à¤Ĥ",
      "à¤°à¥įà¤ ķ",
      "à¥ĩà¤² à¥įà¤¸",
      "eĠth eĠ",
      "à¥ĭ à¤°à¥įà¤Ł",
      "à¥ĩà¤Ĥ à¤¸",
      "g en",
      "à¤¨ à¥ĩĠà¤ķà¥ĩĠà¤²à¤¿à¤ı",
      "yst em",
      "à¤ķ à¤°Ġà¤",
      "Ġal way",
      "® à¥ĩà¤Ĥ",
      "le g",
      "Ġ isĠ",
      "à¥ģ à¤²Ġà¤",
      "à¥Ī à¤®",
      "it i",
      "u d",
      "p ic",
      "l l",
      "Ġan y",
      "for ĠtheĠ",
      "b y",
      ",Ġ iĠ",
      "à¥Ģ à¤ľ",
      "à¥ĢĠà¤¹à¥Ī à¤Ĥ",
      "à¤° ,Ġà¤",
      "à¤Ĥ à¤¸",
      "in t",
      "à¥ģà¤ Ĩ",
      "Ġà¤ķà¥ĩĠà¤ ¸",
      "Ġà¤¤ à¤°",
      ".. .",
      "Ĩ à¤ľ",
      "is s",
      "ers on",
      "you '",
      "à¤¨à¥įà¤« à¤°à¥įà¤®",
      "à¤°à¥įà¤ µ",
      "n a",
      "à¥ĢĠà¤¹ à¥Ĥà¤ģ",
      "e ver",
      "p re",
      "g r",
      "th ingĠ",
      "h eĠ",
      "à¤¾à¤ĩ à¤Ł",
      "à¤¾ !",
      "à¥įà¤¯ à¥Ĥ",
      "Ġà¤¨ à¤Ĥà¤¬",
      "Ġd o",
      "Ġà¤ķà¤°à¤¨ à¤¾Ġà¤",
      ".Ġ itĠ",
      "d o",
      "à¥ĩ à¤¤",
      "u th",
      "Ġan yĠ",
      "k a",
      "ou tĠ",
      "w ant",
      "ex p",
      "Ġa g",
      "h o",
      "Ġsec ur",
      "à¤¾à¤ ľ",
      "Ġà¤ħ à¤°",
      "i dĠ",
      "à¤¾à¤¨à¤ķ à¤¾à¤°à¥ĢĠà¤",
      ".Ġ how",
      "Ġto day",
      "Ġw ith",
      "à¤¿ à¤°à¥įà¤",
      "Ġà¤¬ à¥ĭà¤²Ġà¤°à¤¹",
      "e v",
      "à¤Ĥ à¤ª",
      "Ġà¤® à¥Īà¤¸à¥ĩà¤ľ",
      "à¤¿à¤Ł à¥ĩà¤²à¥įà¤¸",
      "hel p",
      "a keĠ",
      "à¤ķ à¥įà¤ķ",
      ",Ġs ir",
      "à¤¾à¤ķ à¤¿",
      "Ġà¤ķ à¤¹",
      "à¥Ģ à¤§",
      "Ġhel lo",
      "und er",
      "lo c",
      "¥ à¥ĭà¤¡à¤¼",
      "e .",
      "ĠareĠ you",
      "c le",
      "®à¥Īà¤Ĥ à¤¨à¥ĩĠà¤",
      "Ġà¤¬ à¤¾à¤¤",
      "our Ġ",
      "ľà¤¼ à¥įà¤¯à¤¾à¤¦",
      "à¤Ń à¥Ģ",
      "sĠ s",
      "īà¤¨ à¥įà¤¹",
      "à¤® à¥ĩà¤Ĥ",
      "à¤¸ à¥įà¤¤",
      "eĠ isĠ",
      ".Ġw hatĠ",
      "c er",
      "à¥ĩà¤Ĥ à¤Ĺ",
      "¤à¤° à¥Ģà¤ķ",
      "Ġà¤¸ à¤ķà¤¤",
      "Ġpro cess",
      "à¤¾à¤°à¥įà¤ ¡",
      "à¤¹ à¤¨",
      "r at",
      "Ġal l",
      "e ?Ġ",
      "à¤¢à¤¼ à¤¿à¤¯",
      "à¥Ģ à¤¬",
      "Ġà¤ķ à¥īà¤²",
      "in v",
      "° à¥ĭ",
      "an yĠ",
      "à¤¾à¤¨ à¥ĩĠà¤ķà¥ĩĠà¤²à¤¿à¤ı",
      "eĠ a",
      "Ġà¤® à¥ģà¤Ŀà¥ĩĠà¤",
      "à¥įà¤ķ à¥Īà¤®",
      "eb s",
      "Ġs ome",
      "es .Ġ",
      "Ġ âĤ¹",
      "Ľ à¥ĭà¤Ł",
      "Ġà¤° à¥ģà¤ªà¤¯",
      "īà¤¨ à¤ķ",
      "d on",
      ".ĠĠ oh",
      "à¤¿à¤°à¥įà¤ «",
      "p os",
      "p t",
      "pec ial",
      "à¤¾Ġà¤ °à¤¹",
      "à¤¨à¥ĩĠà¤ µà¤¾à¤²",
      "ac h",
      ", Ġand",
      "on lin",
      "9 9",
      "Ġà¤¹ à¥Ĥà¤ģ",
      "Ġà¤ķà¤°Ġà¤¸ à¤ķà¤¤",
      "ĩ à¤¨",
      "k iĠ",
      "à¥ĩà¤° à¤¿à¤«",
      "à¤¿à¤²à¥įà¤ķ à¥ģà¤²Ġà¤",
      "i Ġc",
      "® à¤¿à¤¸à¥įà¤Ł",
      "is eĠ",
      "act ion",
      "à¥ĢĠà¤ ļ",
      "d oĠ",
      "g et",
      "Ġà¤ ĸ",
      "ro han",
      "ne ed",
      "Ġf e",
      "immediat ely",
      "ne w",
      "Ġà¤¹à¥Ī à¤²",
      "Ġà¤¸ à¤¬",
      "à¤¿à¤ķ à¥ĩà¤¶à¤¨",
      "¬ à¤¾à¤¤",
      "ex c",
      "Ġà¤ īà¤¸",
      "Ġaccoun t",
      "Ġà¤® à¥ĩà¤°",
      "à¥Ģ à¤¨",
      "Ġà¤ķà¤° à¤¤à¥ĩĠà¤¹à¥Īà¤Ĥ",
      "à¥ĭà¤Ĥ Ġà¤ķà¥ĭĠà¤",
      "l ag",
      "à¥ĢĠà¤ ¥",
      "Ġà¤ľ à¤¼",
      "ar t",
      "b ut",
      "ed Ġa",
      "Ġm yĠ",
      "Ġthe ir",
      "Ġà¤ķà¤° à¤¤",
      "ĠtoĠ beĠ",
      "à¥ģà¤°à¤ķà¥įà¤· à¤¿à¤¤Ġà¤",
      "ĠthisĠ isĠ",
      "eĠt r",
      "ent ial",
      "ħ à¤¸à¤²",
      "à¤® à¤¤",
      "Ġà¤¦ à¥ĩà¤ĸ",
      "om eĠ",
      "as s",
      "s olut",
      "Ġalway sĠ",
      "Ĩà¤ªà¤ķ à¥ĩĠà¤",
      ".Ġw h",
      "sound sĠ",
      "s harma",
      "e k",
      "r on",
      "v al",
      "b il",
      "à¤¿à¤ ®",
      "ly .Ġ",
      "under st",
      "hai .Ġ",
      "Ġà¤° à¤ĸ",
      "P I",
      "t im",
      "à¥ ĥ",
      "à¤¨ à¥įà¤¯",
      "b a",
      "qu ick",
      "ıà¤ķ à¥įà¤¸",
      "à¤¾Ġà¤¹ à¥ĭà¤Ĺ",
      "ple t",
      "Ġf rom",
      "c an",
      "ħ à¤°",
      "Ġà¤ ı",
      "ab leĠ",
      "Ġd i",
      "Ġà¤ µà¤¾à¤²",
      "sĠ for",
      "le as",
      "à¥ĢĠà¤ ¦",
      "à¤¾Ġà¤ ¨",
      "pec ific",
      "Ġcon firm",
      "à¤¾Ġà¤¹ à¥ĭ",
      "Ġthan k",
      "Ġd etail",
      "® à¤¿à¤²",
      "ex t",
      "pro m",
      "Ġthe y",
      "es tĠ",
      "ing Ġa",
      "par t",
      "n am",
      "pe ak",
      "Ķ à¤°Ġà¤ķ",
      "à¤° à¤¿à¤Ł",
      "ħà¤ª à¤¨",
      "Ġthes eĠ",
      "à¤¾Ġà¤ ļ",
      "Ġth in",
      "Ġas s",
      "à¤¾à¤ģ à¤Ĺ",
      "ag eĠ",
      "Ń à¥ĩà¤ľ",
      "à¤¾ Ġ",
      "h er",
      "Łà¥įà¤°à¤¾à¤Ĥ à¤¸",
      "Ġa f",
      "ar Ġ",
      "Ġà¤ľ à¥ĭĠà¤",
      "c re",
      "w as",
      "à¥ĭ à¤¶",
      "th eĠ",
      "Ġ you",
      "ed .Ġ",
      "à¥ĩà¤ ¯",
      "U PI",
      "à¤¾à¤°à¥įà¤ ľ",
      "d at",
      "Ġth ereĠ",
      "¡ à¤¿à¤Łà¥ĩà¤²à¥įà¤¸",
      "5 0",
      ",Ġà¤ Ķà¤°Ġà¤",
      "Ġp ri",
      "Ġt im",
      "anc eĠ",
      "ok ay",
      "ust om",
      "s ĠareĠ",
      "b ank",
      "com m",
      "uth or",
      "à¤®à¤¤ à¥Įà¤°Ġà¤ª",
      "p h",
      "Ġd e",
      "5 ,000",
      "Ġ for",
      "Ġà¤ Ĩà¤ª",
      "en dĠ",
      "o ,Ġ",
      "à¤¾Ġà¤¥ à¤¾Ġà¤ķà¤¿",
      "à¥Į à¤ķ",
      "cl us",
      "à¥ĩ à¤¹",
      "oun t",
      "à¥ĩà¤ķ à¥įà¤Ł",
      "your Ġc",
      "as t",
      "e h",
      "à¤¾Ġà¤¥ à¤¾,Ġà¤",
      "à¤¾Ġà¤ Ķà¤°Ġà¤",
      "pro vid",
      "à¤¿à¤¸à¥įà¤Ł à¤®",
      "à¤°à¥įà¤µ à¤¿à¤¸",
      "ens ureĠ",
      "a .Ġ",
      "ing ĠtheĠ",
      "ic al",
      "1 2",
      "ħà¤ª à¤¨à¥ĩĠà¤",
      "à¥ĩĠà¤¬ à¤¾à¤¤",
      "numb erĠ",
      "Łà¥įà¤°à¤¾à¤Ĥà¤¸ à¤«",
      "l ic",
      "à¥ĩĠà¤ ¦",
      "Ġà¤ħ à¤Ĺ",
      "n 'tĠ",
      "ne edĠtoĠ",
      "Ġà¤¤ à¥ģà¤°à¤Ĥà¤¤Ġà¤",
      "Ġà¤¤à¥ģà¤®à¥įà¤¹ à¤¾à¤°",
      "n el",
      "Ġal right",
      "Ġcom m",
      "Ġs e",
      "s el",
      "Ġs ervic",
      ".Ġ pleaseĠ",
      "s .",
      "is ĠthisĠ",
      "ex clus",
      "r ic",
      "g etĠ",
      "re ad",
      "ħ à¤¨",
      "Ń à¤°",
      "i'm Ġ",
      ",Ġ mr.Ġ",
      "Ġà¤ľ à¤²à¥įà¤¦",
      "Ġas k",
      "ĠaĠb itĠ",
      "it âĢĻsĠ",
      "? Ġà¤®à¥Īà¤Ĥ",
      "in ter",
      "Ġà¤¹ à¥ĩà¤²",
      "a im",
      "Ġà¤¸ à¥ģà¤¨",
      "s .ĠĠ",
      "à¤µà¤¾à¤ ¦",
      "it al",
      "Ġà¤¶à¥ģà¤ķà¥įà¤°à¤¿à¤¯ à¤¾à¥¤Ġà¤",
      "Ġb eĠ",
      "th er",
      "à¤® à¤¸à¥įà¤¤",
      "ħà¤ļà¥įà¤Ľ à¤¾Ġà¤²à¤Ĺ",
      "à¥įà¤ ¶à¤¨",
      "à¤¨à¥įà¤¯ à¤µà¤¾à¤¦",
      "ment ion",
      "fe eĠ",
      "di rect",
      "à¤ľ à¥Ģà¤¬",
      "Ġà¤¹à¥ĭ à¤¤",
      "ª à¥įà¤°à¤¿à¤¯",
      "§ à¤¨à¥įà¤¯à¤µà¤¾à¤¦",
      "à¤¨à¤² à¤¾à¤ĩà¤¨",
      "y .Ġ",
      "ĳ à¤¨à¤²à¤¾à¤ĩà¤¨",
      "ch ec",
      "haveĠ aĠ",
      "leg it",
      "¯ à¥ĩĠà¤¸",
      "Ġà¤ ĳà¤«",
      "ver n",
      "go vern",
      "r up",
      "?Ġ iĠ",
      "yes ,",
      "in form",
      "à¥ĩà¤ ¬à¤¸",
      "eĠt o",
      "b o",
      "à¤°Ġà¤ ¦",
      "Ġà¤Ń à¥ĩà¤ľ",
      "Ġà¤¬ à¤¤",
      "legit im",
      "à¥Ģ à¤¦",
      "op leĠ",
      "op port",
      "à¥ĩà¤¬à¤¸ à¤¾à¤ĩà¤Ł",
      "opport un",
      "à¥ĢĠà¤ °",
      "ĳà¤«à¤¿à¤¶à¤¿à¤¯ à¤²Ġà¤",
      "à¤¾Ġà¤ Ĺà¤¯",
      "ļà¤¾à¤¹ à¤¤",
      "! Ċ",
      ",Ġà¤ ¸",
      ", Ġà¤¹à¤®",
      "w ell",
      "Ġà¤¹à¥Ī Ġà¤ķà¤¿",
      "con t",
      "Ġab solut",
      "j ust",
      "à¥Ĥ à¤¸",
      "a w",
      "à¥¤Ġà¤ ®à¥Īà¤Ĥ",
      "cer n",
      "à¤ ł",
      "es ,Ġ",
      "à¤¿à¤² à¤ķ",
      "à¤¾à¤ Ĺ",
      "th ing",
      "Ġà¤ħ à¤Ńà¥ĢĠà¤",
      "w ouldĠ",
      "m or",
      "Ġà¤ Ł",
      "os tĠ",
      "lo g",
      "Ġà¤ķ à¥ĭ",
      "Ġa p",
      "\" Ċ",
      "à¤¾Ġà¤¹ à¥Ĥà¤Ĥ",
      "at edĠ",
      "reg ard",
      "Ġà¤ Ĳà¤¸",
      "Ġà¤² à¥ĭà¤Ĺ",
      "res s",
      "à¥ģà¤ ¡",
      "Ġa r",
      "f und",
      "à¥ĭ à¤²",
      "ħ à¤²",
      "Ġs cam",
      "is ter",
      "Ġà¤Ĩ à¤¯",
      "Ġà¤¹à¥ĭĠà¤ľ à¤¾à¤ıà¤Ĺ",
      "c r",
      "ĠthankĠyouĠ for",
      "m in",
      "« à¥ĭà¤¨",
      "Ġ k",
      "h igh",
      "¶ à¤°à¥įà¤®",
      "Ġs m",
      "à¤¨à¥ĩĠà¤ ¸",
      "Ġw ill",
      "Ġact iv",
      "à¥Īà¤¸ à¥ĩĠà¤ķ",
      "p a",
      "Ġthr ough",
      "Ġc h",
      "à¥ĥ à¤ªà¤¯",
      "ha in",
      "Ġaf ter",
      "d er",
      "à¤¸ à¥įà¤Ł",
      "ing ĠtoĠ",
      "à¤° à¤¿à¤ı",
      "in ĠtheĠ",
      "ma k",
      "exact ly",
      "Ġà¤¬ à¤¹à¥ģà¤¤",
      "à¤¾à¤° à¥įà¤Ł",
      "¶ à¥ģà¤ķà¥įà¤°à¤¿à¤¯",
      "i p",
      "ľ à¥ĭĠà¤",
      "hel lo",
      "requ i",
      "exc ell",
      "s eĠ",
      "Ġa ur",
      "Ġà¤ª à¥Ĥà¤°",
      "ª à¥ĩà¤®à¥ĩà¤Ĥà¤Ł",
      "¤à¥ģà¤®à¥įà¤¹ à¥ĩà¤Ĥ",
      "à¥ĩĠà¤ª à¤¹à¤²",
      "Ġthat 's",
      "Ġpay mentĠ",
      "à¤ķ à¤²",
      "at ch",
      "Ġà¤ķà¥ĩĠà¤¸ à¤¾à¤¥",
      "of t",
      "e .ĠĠ",
      "à¤¤ à¤°",
      "e ,",
      "i allyĠ",
      "forĠ your",
      "Ġth en",
      "is h",
      "Ġ re",
      "à¥ĩ ?",
      "us eĠ",
      "ħ à¤Ńà¥ĢĠà¤",
      "à¥įà¤ µ",
      "s ec",
      "com p",
      "detail sĠ",
      "it edĠ",
      "Ĩà¤ªà¤ķ à¥ĭĠà¤",
      "m o",
      "an g",
      "oun tĠ",
      "Ġà¤¥ à¥ĭà¤¡à¤¼",
      "à¤ķ à¥ĩĠà¤¬",
      "rece iveĠ",
      "you ĠareĠ",
      "Ġa t",
      "Ġf in",
      "® à¥ģà¤Ŀ",
      "Ġà¤ª à¤°",
      "reg ister",
      "Ġà¤µ à¥ĭĠà¤",
      "Ġpro c",
      "y aĠ",
      "à¥ĢĠà¤ µ",
      "à¥ĢĠà¤¹à¥Ī ,Ġà¤",
      "keĠliy eĠ",
      "l at",
      "Ġa v",
      "Ġm essag",
      "à¤ķ à¤¤à¥ĩĠà¤¹à¥Īà¤Ĥ",
      "à¥¤Ġà¤ ¸",
      ",Ġ weĠ",
      "Ġà¤ķ à¤¨à¥įà¤«à¤°à¥įà¤®",
      "ol ic",
      "¨ à¤Ĥà¤¬",
      "wh ic",
      "d el",
      "in st",
      "à¤ľ à¤¿à¤¸à¥įà¤Ł",
      "ª à¥įà¤°",
      "à¥Ĥ à¤¨",
      "anc ial",
      "¤à¤° à¤¹",
      "a f",
      "Ġ your",
      "j a",
      "¬ à¤¤",
      "à¤¸ à¥įà¤ª",
      "à¥ĩĠà¤ ľ",
      "à¥ĩ Ġà¤ķà¥ĩĠà¤",
      "com plet",
      "· à¥įà¤Ł",
      "à¤¤ à¤°à¥įà¤ķ",
      "im port",
      "s ĠandĠ",
      "à¤¾à¤°à¥ĩĠà¤® à¥ĩà¤ĤĠà¤",
      "à¥Ĥà¤Ĥ à¤Ĺ",
      "e w",
      "sel f",
      "Ġà¤ķ à¤¿à¤¸",
      "µà¤¾à¤ ¹",
      "m eĠ",
      "à¤® à¥ĩà¤ĤĠà¤",
      "Ġà¤ª à¥įà¤°à¥ĭà¤¸à¥ĩà¤¸",
      "à¤°à¥įà¤ ļ",
      "à¤¾Ġà¤ķ à¥ĭà¤Ī",
      "à¤¾Ġà¤¦ à¤¿à¤¨",
      "« à¤¼",
      "Ġà¤¸ à¤¹",
      "à¤¡ à¤®",
      "à¤¿ à¤°",
      "ĠthatĠ soundsĠ",
      "ar yĠ",
      "oug hĠ",
      "v is",
      "à¥ĩà¤® à¤¾à¤²",
      "à¥įà¤¤ à¥ĩà¤®à¤¾à¤²",
      "es pec",
      "pay ment",
      ",Ġ butĠ",
      "i b",
      "er sĠ",
      "ed Ġs",
      "² à¤¿à¤Ĥà¤ķ",
      "ĠtheĠ c",
      "Ġà¤¦ à¥ĩà¤¨",
      "you' reĠ",
      "Ġà¤² à¤¿à¤Ĥà¤ķ",
      "o or",
      "¤ à¥ĭ",
      "à¤° à¤ķ",
      "m an",
      "¶ à¤¾à¤¯à¤¦",
      "Ġa Ġp",
      "Ġà¤ķà¤° à¤ķà¥ĩĠà¤",
      "exclus iveĠ",
      "Ġth ough",
      "ec tĠ",
      "um ar",
      ".Ġ s",
      "à¤¹ à¤¾à¤ģ",
      ", 500",
      "p erson",
      "or t",
      "i Ġam",
      "à¥Ģ à¤¡",
      "is Ġthis",
      "Ġto Ġs",
      "enc y",
      "ca re",
      "id ent",
      "n ation",
      "?ĠĠ yes,Ġ",
      ", Ġà¤ķà¥įà¤¯à¤¾Ġà¤",
      "u eĠ",
      "à¥įà¤Ł à¤¿à¤µ",
      "ha iĠ",
      "¦ à¥ĩà¤ĸ",
      "°à¥ĭ à¤¹à¤¨",
      "Ġà¤ª à¤°Ġà¤ķ",
      "Ġà¤ª à¥ĩà¤®à¥ĩà¤Ĥà¤Ł",
      "à¤¾à¤ ª",
      "Ġà¤ķà¤°Ġà¤ ²",
      "k e",
      "à¥ĩ à¤¨à¤¾Ġà¤",
      "l im",
      "à¤® à¤¯",
      "ĺ à¤Ĥà¤Ł",
      "ľ à¤°à¥Ĥà¤°",
      "Ġà¤¸ à¤®à¤Ŀ",
      "à¤¿à¤²à¤ķ à¥ģà¤²",
      "m ightĠ",
      "ell oĠ",
      "®à¤¿à¤¸à¥įà¤Ł à¤°Ġà¤",
      "à¥ĭ à¥¤Ġà¤",
      "ma d",
      ". ĠtheyĠ",
      "Ġw eĠ",
      "act ic",
      "c ardĠ",
      "ħà¤Ĺ à¤°Ġà¤ķ",
      "Ġa Ġc",
      "er t",
      "ĸ à¥įà¤¯",
      "Ġà¤ķ à¤®",
      "Ġa ap",
      "à¥Ģà¤ľ à¤¿à¤ı",
      "Ġà¤ľ à¤¾à¤¨",
      "à¤ķ à¤¿",
      "à¥Į à¤¨",
      "ıà¤ķ Ġà¤¸",
      ".Ġ it'sĠ",
      "messag eĠ",
      "don 'tĠ",
      "u in",
      "kar neĠ",
      "iou sĠ",
      "Ġà¤ Ķà¤°",
      "ĠthisĠ is",
      "à¤² à¤¾à¤¹",
      "Ġà¤¹à¤® à¥ĩà¤¶",
      "à¥Ĥà¤ Ľ",
      "à¥ģà¤ ¦",
      "rec tĠ",
      "gen uin",
      "à¥ĢĠà¤ ¡",
      "à¤¾à¤ ¬",
      "Ġm e",
      "à¤² Ġà¤¸",
      "¬ à¤¢à¤¼à¤¿à¤¯",
      "à¥ģà¤°à¤Ĥ à¤¤",
      "dis c",
      ", ĠtheĠ",
      "h ouldĠ",
      "Ġà¤¤à¤° à¥Ģà¤ķ",
      "à¤Ĥà¤ª à¤¨",
      "f ron",
      "s ĠtoĠ",
      "à¤ķ à¥įà¤¸",
      "à¥ĩà¤°à¤¿à¤« à¤¿à¤ķà¥ĩà¤¶à¤¨",
      "à¥ĭ à¤¬",
      "à¤¾Ġà¤¹à¥Ī Ġà¤ķà¤¿",
      "Ġà¤°à¤¹ à¤¾Ġà¤¹à¥Īà¥¤Ġà¤",
      "rec is",
      "ħà¤ª à¤¨à¤¾Ġà¤",
      "rup e",
      "¯à¥ĩĠà¤ ¤à¥ĭĠà¤",
      "âĢĻ s",
      "verif y",
      "em ent",
      "® à¥ĩà¤ĤĠà¤",
      "à¤¾à¤¨ à¥ĩĠà¤ķ",
      "Ġabsolut ely",
      "1 0",
      "à¥įà¤ ¡",
      "your Ġp",
      "à¤¾à¤ĩ à¤®",
      "op er",
      "j al",
      "t r",
      "Ġà¤ķ à¥ī",
      "ing Ġp",
      "di a",
      "à¤§ à¤¾à¤¨",
      "¤ à¤¾à¤ķà¤¿",
      "à¥įà¤² à¤¿à¤ķ",
      "with Ġ",
      "ec tion",
      "ħ à¤¬",
      "Ġà¤¬ à¤¸",
      "à¤¾à¤µ à¤§à¤¾à¤¨",
      "c anĠ",
      "Ġw ebs",
      "Ġà¤¬ à¤¾à¤¤Ġà¤",
      "up fron",
      "re dĠ",
      "Ġà¤¹à¥Ĥà¤ģ ,Ġà¤",
      "Ġà¤¶ à¤°à¥įà¤®",
      "good ĠtoĠ",
      "Ġd is",
      "ol v",
      "pec t",
      "Ġà¤¬ à¤¿à¤²à¥įà¤ķà¥ģà¤²Ġà¤",
      ".ĠthisĠ isĠ",
      "wor k",
      "à¤ļ Ġà¤®à¥ĩà¤Ĥ",
      ".ĠthisĠ is",
      "i' ll",
      "onlin eĠ",
      "ar g",
      "à¥ĩĠà¤¬ à¤ļ",
      "ra j",
      "à¤Ĥ à¤Ĺ",
      "pro t",
      "à¥ĢĠà¤ Ķà¤°Ġà¤",
      "à¥¤ Ġà¤¹à¤¾à¤ģ,Ġà¤",
      "f re",
      "Ġà¤ľ à¤¾à¤ıà¤Ĺ",
      "ing ,Ġ",
      "sĠ likeĠ",
      "sĠ or",
      "à¤¸ à¤¾à¤¨",
      "Ġà¤ħ à¤ķà¤¾à¤īà¤Ĥà¤Ł",
      "à¤° à¥Ĥ",
      "k oĠ",
      "m all",
      "Ġà¤¬ à¤¨",
      ",Ġà¤ ¤à¥ĭĠà¤",
      "oul d",
      "Ġà¤¹ à¤¾à¤Ĥ",
      "Ġth os",
      "lo ok",
      "e g",
      "Ġm in",
      "Ġà¤Ĺ à¤¯",
      "a dĠ",
      "you Ġc",
      "Ġs ystem",
      ".ĠĠoh ,Ġ",
      "Ġà¤¹à¤®à¤¾à¤° à¥ĩĠà¤",
      "à¤¿à¤ķà¥įà¤¯à¥ĭ à¤°à¤¿à¤Ł",
      "cle ar",
      "à¤¾Ġà¤ «",
      "à¥ĩĠà¤ª à¤¾à¤¸",
      "ļà¤¾à¤¹à¤¿à¤ı à¥¤Ġà¤",
      "govern mentĠ",
      "Ġà¤ķ à¤¿à¤¸à¥ĢĠà¤",
      "Ġà¤ª à¤¹à¤²",
      "à¤¾à¤ ĵ",
      "łà¥Ģà¤ķ Ġà¤¹à¥Ī,Ġà¤",
      "à¤¾Ġà¤¬ à¥ĭà¤²Ġà¤°à¤¹",
      "usu allyĠ",
      "lo s",
      ",Ġà¤ ®à¥Īà¤Ĥ",
      "à¤¿à¤¯ à¤®",
      "r am",
      "Ġà¤ ĸà¤¾à¤¸",
      "à¥ĩĠà¤¹ à¥ĢĠà¤",
      "Ġà¤¹à¥ĭĠà¤ Ĺà¤¯",
      "want edĠtoĠ",
      "à¤° à¤¨",
      "al k",
      "Ġà¤ķ à¤¾à¤®",
      "Ġcom p",
      "à¥Ģ Ġ",
      "Ġas kĠ",
      "d uc",
      "urg entĠ",
      "Ġt a",
      "cl aim",
      "m one",
      "Ġt extĠ",
      "à¥ĩà¤ľ à¤¼",
      "à¥ĩà¤Ĥ à¤¶",
      "b yĠ",
      "à¥Ģ à¤µ",
      "Ġth em",
      "se em",
      "w ar",
      "Ġ forĠ",
      "à¥ĭà¤Ĥ Ġà¤ķà¥ĩĠà¤²à¤¿à¤ı",
      "Ġsecur ityĠ",
      "à¤¾Ġà¤ ¨à¤¹à¥Ģà¤Ĥ",
      "and ardĠ",
      "Ġtrans fer",
      "ec h",
      "ation .Ġ",
      "up i",
      "ol l",
      "h op",
      "à¥Īà¤¸ à¥ĩĠà¤®",
      "Ġthin k",
      "Ńà¤° à¥ĭà¤¸",
      "à¤¦ à¤®",
      "§ à¥įà¤¯",
      "register edĠ",
      "esĠ s",
      "à¤ £",
      "à¤ķ à¤®",
      "Ġà¤ħ à¤¸à¤²",
      "Ġto ĠsecureĠ",
      "m ostĠ",
      "us pic",
      ".. .Ġ",
      "§à¥įà¤¯ à¤¾à¤¨",
      "ª à¤¸",
      "Ġà¤¯à¥ĩĠà¤ ¤à¥ĭĠà¤",
      "à¥ĭ à¤ķ",
      "à¥ģ à¤ª",
      "à¤¾à¤¤ à¥ĩĠà¤¹à¥Īà¤Ĥ",
      "a j",
      "be for",
      "a Ġs",
      "à¥ĩĠà¤ °à¤¹",
      "¬ à¤¡à¤¼",
      "Ġc han",
      "à¤ķ à¥įà¤°à¤¿à¤¯",
      "k o",
      "ma keĠ",
      "à¥ĩà¤¸ à¥įà¤Ł",
      "Ġà¤¤à¤° à¤¹",
      "Ľà¥ĭà¤Ł à¤¾Ġà¤¸",
      "espec iallyĠ",
      "Ĩ à¤®à¤¤à¥Įà¤°Ġà¤ª",
      "Ġà¤« à¥Ģà¤¸",
      "à¤¾à¤® à¤²",
      "u al",
      "w on",
      "e kĠ",
      "it .Ġ",
      "à¥ĢĠà¤ ¤à¤°à¤¹",
      "Ġthr oughĠ",
      "à¥įà¤° à¥ĩà¤¡",
      "n extĠ",
      "à¥ĢĠà¤¬à¤¾à¤¤ Ġà¤¹à¥Īà¥¤Ġà¤",
      "Ġà¤¸à¤¹à¥Ģ à¥¤Ġà¤",
      "Ġà¤¸ à¥ĩĠà¤ķ",
      "Ġcon t",
      "? Ġà¤¯à¤¹",
      "in de",
      "à¥ģà¤° à¥Ĥ",
      "à¤ ¥",
      "iou s",
      "o st",
      "à¤¾à¤¯ à¤°",
      "à¥Ģ à¤¯",
      "ħ à¤ľà¥Ģà¤¬",
      "ou s",
      "lo t",
      "Ġà¤Ķà¤°Ġà¤ ¸",
      "gen er",
      "Ġp leas",
      "Ĩà¤ªà¤ķ à¤¾Ġà¤",
      "à¤¨à¥ĩĠà¤ ª",
      "Ġà¤ķ à¥ĭĠà¤¸",
      "ing ĠaĠ",
      "ĸà¤¾à¤¸ à¤ķà¤°Ġà¤",
      "v en",
      "y pic",
      "Ġth er",
      "à¤® à¥įà¤®",
      "up iĠ",
      "r y",
      "s oĠ",
      "ĩà¤¸ à¥įà¤¤à¥ĩà¤®à¤¾à¤²",
      "es h",
      "µ à¥ĩà¤¬à¤¸à¤¾à¤ĩà¤Ł",
      "Ġ or",
      ",Ġ m",
      "th isĠ",
      "k aĠ",
      "à¤° à¥¤Ġà¤",
      "Ġà¤ľ à¥Īà¤¸",
      "à¥ĩ !",
      "Ġb ank",
      "youĠ haveĠ",
      "à¥ĩĠà¤® à¥ĩà¤Ĥ",
      "u sĠ",
      "Ġsa f",
      "¤ à¥ĭĠà¤ķ",
      "ī à¤ł",
      "Ġà¤ķ à¤¾à¤«",
      "Ġcall ingĠ",
      "g re",
      "Ġchan nel",
      "f il",
      "à¥ĩ à¤¤à¥ĩĠà¤¹à¥Īà¤Ĥ",
      "à¥ģà¤ ·à¥įà¤Ł",
      "Ġà¤ķà¤° à¤¤à¥ĩĠà¤¹à¥Īà¤Ĥà¥¤Ġà¤",
      "em ail",
      "à¤¾,Ġà¤ ¸",
      "ĩà¤¸ à¤ķ",
      "à¤¿à¤Ĥ à¤¤",
      "o on",
      "Ġà¤ķà¥įà¤¯ à¥ĭà¤Ĥ",
      "à¥ĭà¤¶ à¤¿à¤¶",
      "à¥įà¤ ¥",
      "lin kĠ",
      "er g",
      "à¤°à¥įà¤ ľ",
      "à¤¾à¤¨ à¥ĩĠà¤",
      "pe opleĠ",
      "à¤¸à¥įà¤Ł à¤®",
      "à¤¾à¤Ĥ à¤Ĺ",
      "à¥įà¤ ¤Ġà¤",
      "re ach",
      "à¥ī à¤°à¥įà¤®",
      "Ġà¤ķà¥ĩĠà¤¬ à¤¾à¤°à¥ĩĠà¤®à¥ĩà¤ĤĠà¤",
      "ha sĠ",
      "pre v",
      "r is",
      "à¥Ģ à¤²",
      "7 8",
      "Ġà¤¹à¥Ī Ġà¤¨",
      "rem i",
      "eĠtr ans",
      "ĸà¥įà¤¯ à¤¾à¤²",
      "à¤¾à¤¨à¤ķ à¤¾à¤°",
      "verif yĠ",
      "à¥Ģ à¤Ł",
      "Ġt um",
      "ing Ġc",
      "Ġà¤¤ à¤¾à¤ķà¤¿",
      "t i",
      "if t",
      "à¤ķà¥ĩĠà¤ ²à¤¿à¤ı",
      "à¤¬ à¤¸à¥ĩĠà¤",
      "ac c",
      "à¥ģà¤·à¥įà¤Ł à¤¿",
      "¨à¤¹à¥Ģà¤Ĥ ,Ġà¤",
      "be en",
      "on lyĠ",
      "Łà¥įà¤°à¤¾à¤Ĥà¤¸à¤« à¤°",
      "ow n",
      "ľà¤¼à¤°à¥Ĥà¤° à¥ĢĠà¤¹à¥Īà¥¤Ġà¤",
      "Ġà¤ķ à¥ĢĠà¤¸",
      "p ot",
      "à¥ĩà¤Ĥ à¥¤Ġà¤",
      "k i",
      "al th",
      "à¥įà¤° à¥ī",
      "no on",
      "à¥ĩĠà¤¹à¥ĭ ?",
      "it ion",
      "edĠ with",
      "ľ à¤¿à¤¸",
      "gu ar",
      "- tim",
      "official Ġ",
      "usu al",
      "en g",
      "à¤¿à¤ľ à¤¿à¤Ł",
      "à¤¿à¤ ¦",
      "Ġà¤¸ à¥įà¤Ł",
      "t eĠ",
      "vi ew",
      "° à¤ĸ",
      "ac tĠ",
      "Ġà¤¹à¥Īà¤Ĥ à¥¤Ġà¤",
      "à¥ĢĠà¤ ¨",
      "Ġà¤ıà¤ķ à¥įà¤¸",
      "recis ely",
      "à¤ ģ",
      "am il",
      ".ĠweĠ areĠ",
      "ro w",
      "Ġà¤ª à¥įà¤°à¥ĭ",
      "à¥ĭà¤Ĥ Ġà¤ķà¥ĢĠà¤",
      "ign ific",
      "Ġ I",
      "Ĳ à¤ª",
      "µà¤¾à¤ ªà¤¸",
      "Ġà¤¹à¥ĭĠà¤ °à¤¹",
      "y ĠtoĠ",
      "for ĠaĠ",
      "2 4",
      "ha pp",
      "olut ion",
      "Ġafter noon",
      "à¥ĢĠà¤¹à¥Ĥà¤ģ à¥¤Ġà¤",
      "¤ à¥ĭĠà¤¸",
      "of ĠtheĠ",
      "b ack",
      "c ouldĠ",
      "ha Ġ",
      "Ġin v",
      "ever y",
      "° à¤ľà¤¿à¤¸à¥įà¤Ł",
      "à¥Ī à¤²",
      "ne ver",
      "à¤¤à¤°à¥įà¤ķ Ġà¤°à¤¹",
      "à¥ĢĠà¤ ²à¤Ĺ",
      "iĠc an",
      "t aĠ",
      "un s",
      "Ġà¤Ĩà¤ªà¤ķ à¥ĭĠà¤",
      "from Ġ",
      "n aĠ",
      "à¥¤ \"Ċ",
      "ca ut",
      "nation al",
      "ant e",
      "legitim ateĠ",
      "Ġt akeĠ",
      "good by",
      "¬ à¤¹à¥ģà¤¤",
      "Ġà¤¸ à¥ĭà¤ļ",
      "Ġto o",
      "Ġà¤¶à¥ģà¤ķà¥įà¤°à¤¿à¤¯ à¤¾,Ġà¤",
      "à¥ī à¤ķ",
      "b et",
      "i ver",
      "guar ante",
      ". ĠtoĠ",
      "Ġà¤¨ à¤®à¤¸à¥įà¤¤",
      "à¥Īà¤¸à¥ĩĠà¤ ¦",
      "verif i",
      "on c",
      "Ġc l",
      "à¤¾à¥¤Ġà¤ ®à¥Īà¤Ĥ",
      "ist r",
      "Ġà¤ķ à¥įà¤²",
      "à¥ĩĠà¤¹ à¤®",
      "à¤¾Ġà¤¹ à¥ģà¤Ĩ",
      "k umar",
      "à¤¾Ġà¤ ²",
      "por tĠ",
      "ig ital",
      "- à¤",
      "uch Ġ",
      "ent ly",
      "from ĠtheĠ",
      "à¤¤ à¤¨",
      "à¤¾à¤ģ à¤ļ",
      "Ġà¤Ĩ à¤ľ",
      "Ġà¤¹à¥ĭ à¤Ĺ",
      "à¤¾Ġà¤¹à¥Ĥà¤ģ ?",
      "à¥ģà¤¡ à¤¼",
      "m y",
      "à¥ģà¤ ı",
      "x x",
      "Ġd oĠ",
      "exact lyĠ",
      "à¥Ģ ?",
      "Ġa sĠ",
      ",Ġ priya",
      "Ġà¤ª à¥įà¤°à¤¿à¤¯",
      "ħ à¤Ĥà¤¦",
      "Ġà¤¸ à¤¿à¤°à¥įà¤«",
      "Ġà¤ĩ à¤¨",
      "uthor iz",
      "Ġà¤ķ à¤¾à¤°à¥įà¤¡",
      "enc eĠ",
      "Ĩ à¤Ĺ",
      "chec k",
      "Ġpro m",
      "à¤ı à¤®",
      "Ġà¤ľà¤¼ à¤°à¥Ĥà¤°",
      "' t",
      "à¤°à¥įà¤ ¨",
      "receiv edĠa",
      "12 3",
      "it ed",
      "ľà¤¼ à¤°à¤¿à¤ı",
      "underst and",
      "in iti",
      "à¤¿à¤¨ à¤Ł",
      "f lag",
      "īà¤¨à¥įà¤¹ à¥ĭà¤Ĥ",
      "Ġà¤°à¤ĸ à¤¨",
      "sĠ forĠ",
      "ĩà¤¸ à¥ĩĠà¤",
      "- à¤ķ",
      "d id",
      "off erĠ",
      "à¤ı à¤¸",
      "à¥ģà¤°à¤ķà¥įà¤· à¤¿à¤¤",
      "fin it",
      "Ġà¤¹à¥Īà¤² à¥ĭ",
      "à¥ĢĠà¤ Ĺ",
      "em b",
      "¬ à¥ĭà¤²Ġà¤°à¤¹",
      "ħ à¤Ĥ",
      "ess ion",
      "remi um",
      "¯ à¤¾à¤¦",
      "¶ à¤ķ",
      "Ġà¤ľ à¤°à¥Ĥà¤°",
      "à¥ĢĠà¤¸ à¥ĩĠà¤",
      "âĤ¹ 2",
      "à¥ĩà¤ «",
      "à¥Ī à¤¨",
      "at ed",
      "your Ġs",
      "à¤« à¤¼",
      "s a",
      "à¤¿à¤ķ à¥įà¤°",
      "à¥ĢĠà¤ķ à¥ĭà¤¶à¤¿à¤¶",
      "Ġà¤ķà¤°Ġà¤°à¤¹ à¥ĩĠà¤¹à¥Īà¤Ĥ",
      "Ġà¤¤à¥ģà¤®à¥įà¤¹ à¥ĩà¤Ĥ",
      "ª à¥Ĥà¤°",
      "oun dĠ",
      "oft en",
      "k in",
      "o ther",
      "à¥Ģ Ġà¤ķà¥ĩĠà¤",
      "à¥ĩà¤Ĺ à¤¾à¥¤Ġà¤",
      "j o",
      "proc essĠ",
      "à¥ĥà¤ªà¤¯ à¤¾Ġà¤",
      "Ġà¤® à¥ģà¤Ŀ",
      "your ĠaccountĠ",
      "un ic",
      "Ġw h",
      "on ĠtheĠ",
      "Ġà¤¦ à¤¿à¤²",
      "ure sĠ",
      "à¥ģà¤ Ī",
      "wh at",
      "ev en",
      "à¤¤à¤¾Ġà¤¹à¥Ī Ġà¤ķà¤¿",
      "excell ent",
      "w e",
      "à¤¸ à¤ıà¤®",
      "ingĠ for",
      "e' reĠ",
      "d es",
      "Ġs harma",
      "it ical",
      "µà¤¾à¤¹ ,Ġà¤",
      "à¤¸à¤ıà¤® à¤ıà¤¸",
      "à¥¤ Ċ",
      "Ġà¤¤ à¥ĭ",
      "enc yĠ",
      "i' veĠ",
      "à¥Ī à¤¡à¤®",
      "ur r",
      "Ġà¤ļ à¤¾à¤°à¥įà¤ľ",
      "Ġtrans action",
      "s c",
      "at e",
      "Ġac tion",
      "con cern",
      "ĠaĠs mall",
      "Ġad v",
      "à¥ĢĠà¤¹à¥Ī ?",
      "m ustĠ",
      "à¥ĭ à¤°",
      "Ġp recisely",
      "à¤¾à¤¨ à¤¾Ġà¤",
      "Ġà¤ķà¥ĩĠà¤ ľà¤¼à¤°à¤¿à¤ı",
      "will Ġ",
      "¯à¤¾Ġà¤ «à¤¿à¤°Ġà¤",
      "n oĠ",
      "Ġp h",
      "har g",
      "a sĠ",
      "inv est",
      "Ġt alk",
      "in c",
      "Ġs har",
      "à¤¬ à¤°",
      "good Ġafternoon",
      "Ġacc ess",
      "vi aĠ",
      "Ġà¤ħà¤ª à¤¨",
      ", Ġà¤ķ",
      "Ġà¤¤ à¤ķ",
      "y eĠ",
      "ens it",
      "à¤¾à¤« à¤¼",
      "¯ à¥ĩĠà¤ķ",
      ",Ġà¤ ²à¥ĩà¤ķà¤¿à¤¨",
      "¯ à¥ĩĠà¤¬",
      "à¤¾Ġà¤¥ à¤¾à¥¤",
      "Ġà¤Ĩà¤ªà¤ķ à¥ĩĠà¤",
      "Ġs ak",
      "Ķà¤°Ġà¤ ¸",
      "w ebs",
      "re fer",
      "à¤¾à¤® à¤¾à¤¨",
      "receiv ed",
      "iss u",
      "Ġa Ġm",
      "à¥Īà¤Ĥ à¤¡",
      "Ġdi rect",
      "i esĠ",
      "à¥ģà¤ ¶",
      "ul t",
      "-tim eĠ",
      "ver yĠs",
      "Ġto ĠtheĠ",
      "ıà¤ķ Ġà¤®à¥Īà¤¸à¥ĩà¤ľ",
      "à¥Ī à¤¨à¤²",
      "bil eĠ",
      "underst andĠ",
      "à¤ª à¥ĭà¤°à¥įà¤Ł",
      "Ġin ter",
      "Ĩ à¤Ī",
      "à¤ µà¤¾à¤²",
      "Ġt ypic",
      "à¥Ī à¤¯",
      "Ġs up",
      "Ġà¤¦ à¤¿à¤ĸ",
      "it âĢĻs",
      "à¤Ĺ à¤¹",
      "is tĠ",
      "ıà¤ķ Ġà¤¬",
      "âĢ ĵ",
      "confirm Ġ",
      "à¤§ à¤¿à¤ķ",
      ".Ġwh at",
      "re t",
      "Ġà¤¸ à¥įà¤ķà¥Īà¤®",
      "à¤¾Ġà¤ķ à¥įà¤¯",
      "Ġav o",
      "goodĠ day",
      "Ġ S",
      "à¤¿à¤ ľà¤¼",
      "us s",
      "4 5",
      "Ġà¤ķ à¤¿à¤¤",
      "ma in",
      "ĳà¤«à¤¿à¤¶à¤¿à¤¯ à¤²",
      "Ġpay ment",
      "īà¤¸ à¤ķ",
      ". ĠthankĠyouĠ",
      "« à¥Ģà¤¸",
      "or yĠ",
      "Ġthos eĠ",
      "Ġà¤ª à¤ķà¥įà¤ķ",
      "me in",
      "- à¤¸",
      "r Ġ",
      "Ġà¤ľ à¤¿à¤¸",
      "Ġà¤łà¥Ģà¤ķ Ġà¤¹à¥Ī,Ġà¤",
      "ustom er",
      "import ant",
      ". Ġthank",
      "rec i",
      "fe el",
      "à¤¡ à¥ĩà¤Ł",
      "will ĠbeĠ",
      "exp ir",
      "u res",
      "you Ġs",
      "à¥¤ Ġà¤¹à¤®à¤¾à¤°",
      "à¤ļ à¤¸à¥įà¤ª",
      "Ġm r.Ġ",
      ".ĠĠ okay",
      "r ang",
      "ĩà¤¸ à¤¸à¥ĩĠà¤",
      "Ġà¤ķà¥ĩĠà¤²à¤¿à¤ı Ġà¤ıà¤ķ",
      "ha p",
      "à¤¿à¤ķ à¤²",
      "vi a",
      "Ġà¤ħ à¤¨",
      "ab le",
      "Ĩà¤ªà¤ķ à¤¾Ġà¤¦à¤¿à¤¨",
      "® à¥Īà¤¸à¥ĩà¤ľ",
      "Ġà¤¸ à¥ĩĠà¤¸",
      "à¤¾à¥¤Ġà¤ ¸",
      "¥à¥ĭà¤¡à¤¼ à¤¾Ġà¤",
      "Ġmin ut",
      "à¥ĩà¤Ĥà¤¶ à¤¿à¤¯",
      "f ic",
      "f erĠ",
      "en ef",
      "âĤ¹ 1",
      "iĠs e",
      "proc e",
      "t oĠ",
      "gr am",
      "b le",
      "h elloĠ",
      "r ightĠ",
      "di dĠ",
      ". Ċ",
      "n ing",
      "Ġap pro",
      "Ġà¤ ĺà¤Ĥà¤Ł",
      "won der",
      "¨ à¤¾à¤®",
      "Ġà¤® à¤¾à¤ģà¤Ĺ",
      "à¥ĢĠà¤¬ à¤¾à¤¤Ġà¤",
      "hi p",
      "Ġtheir Ġ",
      "inter est",
      "el com",
      "à¥ĩà¤¨ à¥ĩĠà¤ķà¥ĩĠà¤²à¤¿à¤ı",
      "Ġà¤¬à¤¿à¤²à¥įà¤ķà¥ģà¤²Ġà¤ łà¥Ģà¤ķ",
      "à¤¿à¤¸ à¥įà¤ķ",
      "opportun ity",
      "Ġà¤ķà¥įà¤¯à¥ĭà¤Ĥ à¤ķà¤¿",
      "i es",
      "Ġp e",
      "Ġà¤ķà¤°Ġà¤¦ à¤¿à¤¯",
      "à¥įà¤°à¥ĭà¤¸à¥ĩà¤¸ à¤¿à¤Ĥà¤Ĺ",
      "à¤² à¤¬",
      "fin ancial",
      "s id",
      "à¤° Ġ",
      "M S",
      "¬ à¤¿à¤¨",
      "Ġ ra",
      "inv olv",
      "o kĠ",
      "for Ġs",
      "ur n",
      "ĠthatĠ mak",
      "p r",
      "e -",
      "g ay",
      "ī à¤®à¥įà¤®",
      "à¥Ģà¤§ à¥ĩĠà¤",
      "y ,Ġ",
      "your Ġd",
      "à¤¾à¤µà¤§à¤¾à¤¨ Ġà¤°à¤¹",
      "īà¤®à¥įà¤® à¥Ģà¤¦",
      "à¤¿à¤ ¡",
      "Ġdo ing",
      "ent ion",
      "loc k",
      "à¥ĢĠà¤¹à¥ĭ à¤Ĺ",
      ": Ġ",
      "a h",
      "lo b",
      "lo tĠ",
      "ch arg",
      "ir eĠ",
      "ľ à¤¾à¤¨à¤ķà¤¾à¤°à¥ĢĠà¤",
      "?Ġ Ġh",
      "Ġà¤ľ à¤¾à¤ı",
      "Ġ up",
      "red itĠ",
      "Ġther e",
      "à¤Ĥ à¤¤",
      "it iz",
      "likeĠ th",
      "ifĠ you",
      "Ġà¤¹à¥Īà¤² à¥ĭ,Ġà¤",
      "es it",
      "Ġhello ,Ġ",
      "à¥ĩà¤Ĥà¤Ĺ à¥ĩà¥¤Ġà¤",
      "prom is",
      "Ġà¤ħà¤Ĺ à¤°Ġà¤",
      "ed ,Ġ",
      "ent lyĠ",
      "à¥ī à¤Ł",
      "Ġs ir",
      "Ġà¤® à¤¿à¤¨à¤Ł",
      "Ġà¤ķà¤° à¤ķ",
      "9 8",
      "à¤ľ à¤¹",
      "inform ation",
      "à¤ķ à¥įà¤²",
      "erson al",
      "µ à¤¹",
      "à¤¾à¤¨ à¤¦",
      "em entĠ",
      "Ġh our",
      "Ġà¤ķà¤°à¤¨ à¤¾Ġà¤¹à¥ĭà¤Ĺ",
      "?Ġ whatĠ",
      "im p",
      "à¤ķà¥įà¤¸ à¤°Ġà¤",
      "ħ à¤®",
      "à¥¤Ġà¤ ¯à¤¹",
      "ar k",
      "Ġm one",
      "Ġto h",
      "hai .",
      "eĠ andĠ",
      "Ġà¤¯ à¥ĩĠà¤¸",
      "uns olic",
      "à¤¾Ġà¤ °",
      "à¥ĩà¤ µ",
      "à¥ĢĠà¤ķ à¥įà¤¯",
      "h and",
      "Ġ is",
      "Ġs eĠ",
      "¤à¤° à¤«",
      "Ġà¤ľ à¤¾à¤¨à¤ķà¤¾à¤°à¥ĢĠà¤",
      "! Ġà¤®à¥Īà¤Ĥ",
      "Ġh ow",
      "or d",
      "ing Ġabout",
      "à¥ĢĠà¤ª à¥įà¤°",
      "p ayĠ",
      "à¤ķà¥įà¤ ¶à¤¨",
      "à¥Īà¤ķ à¥ĩà¤ľ",
      "à¤¾à¤ľ à¥ĩà¤¶",
      "à¤¾ ,",
      "à¤° à¥ĩà¤Ĥà¤¸",
      "à¥ĢĠà¤ ¨à¤¹à¥Ģà¤Ĥ",
      "à¤ļà¥įà¤ ļ",
      "eĠth isĠ",
      "à¤¿à¤ ļ",
      "un usual",
      "Ġà¤¸ à¥ĩĠà¤ª",
      "Ġsec ure",
      "duc t",
      "Ġà¤¹ à¤ľà¤¼",
      "à¥Ģ à¤¤",
      "upfron tĠ",
      "at ter",
      "Ġad d",
      "à¥Ģ Ġà¤ķà¥ĩĠà¤²à¤¿à¤ı",
      "for t",
      "à¤¦à¤¦ Ġà¤ķà¤°Ġà¤¸à¤ķà¤¤",
      "whic h",
      "? ĠthatĠ",
      "à¥ĩ à¤²à¥įà¤",
      "eĠs cam",
      "iĠs aw",
      "ª à¤°Ġà¤",
      "Ī à¤®",
      "à¤² à¤¿à¤ı",
      "à¤¾,Ġà¤ ¤à¥ĭĠà¤",
      "Ġà¤ħà¤ª à¤¨à¥ĩĠà¤",
      "proc ed",
      "kin dĠ",
      "d en",
      "reg istr",
      "Ġact u",
      "gu id",
      ", ĠthankĠyou",
      "Ġà¤¸ à¤ķ",
      "Ġsome oneĠ",
      "f ect",
      "o oper",
      "Ġto oĠ",
      "d ec",
      "ª à¤¹à¤²",
      "à¤¤ à¤¾à¤¨",
      "à¥ĩà¤ ¦",
      "à¤¾à¤°à¥įà¤Ł à¤®à¥ĩà¤Ĥà¤Ł",
      "à¥įà¤ ¨",
      "ing ĠthisĠ",
      "ingĠ with",
      "ĠareĠyou Ġdoing",
      "Ġà¤¹à¤® à¤¾à¤°à¥ĢĠà¤",
      "Ġà¤¦ à¤¿à¤¯",
      "an y",
      "à¤¾Ġà¤ µ",
      "à¤ķà¥ĩĠà¤¬ à¤¾à¤°à¥ĩĠà¤®à¥ĩà¤Ĥ",
      "genuin eĠ",
      "h u",
      "à¤¾à¤ ľà¤¼",
      "Ġproc essĠ",
      "your self",
      "ab l",
      "Ġt ra",
      "Ġt ech",
      "ingĠ fe",
      "à¥ĩà¤¹ à¤¤à¤°",
      "o g",
      "a pp",
      "eĠ ofĠ",
      "Ġs peak",
      "Ġin form",
      "wh oĠ",
      "r s.Ġ",
      "à¥ĭà¤Ĥ à¤Ĺ",
      "à¥ĩĠà¤¬ à¤¢à¤¼",
      "Ĩ à¤®",
      "à¤¾Ġà¤¹à¥Ĥà¤ģ ,Ġà¤",
      "Ġà¤« à¤¼",
      "à¤°Ġà¤¸ à¥ĩĠà¤",
      "Ġsecur ity",
      "rat iveĠ",
      "ab out",
      "urg ency",
      "Ġpri ya",
      "m uch",
      "à¥ĢĠà¤ķ à¥ĭĠà¤",
      "detail s",
      "Ġà¤¹à¥ĭ Ġà¤¸à¤ķà¤¤",
      "à¤¾Ġà¤ķ à¥ģà¤Ľ",
      "Ġs oĠ",
      "care ful",
      "à¤¾à¤ĩ à¤²",
      "Ġad vic",
      "Ġà¤¹à¤® à¥ĩà¤Ĥ",
      "w elcom",
      "ic kĠ",
      "ex pect",
      "min ist",
      "v ig",
      ".Ġ myĠ",
      "à¤ľ à¥ĩà¤Ĥà¤¸",
      "à¥ĭà¤Ĥ Ġà¤ķà¥ĩĠà¤",
      "Ġà¤¸à¥ĩĠà¤ ľ",
      "ıà¤ķà¥įà¤¸ à¤ª",
      "Ġà¤ķà¤°Ġà¤°à¤¹ à¥ĩĠà¤¹à¥Īà¤Ĥà¥¤Ġà¤",
      "val u",
      "¤ à¥Ĥ",
      "p end",
      ".ĠĠ yes,Ġ",
      "act iv",
      "provid eĠ",
      "Ġa h",
      "oc ol",
      "à¥Ĥà¤¸ à¤¿à¤µ",
      "à¤°à¤ķ à¤¾à¤°à¥ĢĠà¤",
      "b eĠs",
      "¬ à¤¿à¤²à¥įà¤ķà¥ģà¤²Ġà¤",
      "ĸ à¥ģà¤¦",
      "Ġà¤ Ķà¤°Ġà¤ķ",
      "Ġt actic",
      "Ġà¤¹ à¤¾à¤²",
      "you Ġm",
      "ıà¤ķ à¥įà¤Łà¤¿à¤µ",
      "le t",
      "à¤¾Ġà¤¹ à¤®",
      "hai ,Ġ",
      "īà¤¨à¥įà¤¹ à¥ĩà¤Ĥ",
      "s o",
      "s tĠ",
      "le ar",
      "à¤¾à¤¤ à¥ĩĠà¤¹à¥Īà¤Ĥà¥¤Ġà¤",
      "X X",
      "a v",
      "à¤¿à¤µ à¥ĩà¤¶",
      "¯ à¥ĩĠà¤ª",
      "is ĠthereĠ",
      "ib leĠ",
      "or eĠ",
      "et im",
      "ri but",
      "Ġinv est",
      "ha s",
      "à¥ĩĠà¤¹ à¥Ī",
      "ver t",
      "Ġà¤ħ à¤²",
      "ĩà¤¸ à¤¸",
      "k ul",
      "¤ à¥ģà¤°à¤Ĥà¤¤",
      "à¤µ à¤¿à¤¦",
      "à¥Ģà¤¡ à¤¿à¤¯",
      "Ġà¤ļ à¥Ģà¤ľà¤¼",
      "ensit iveĠ",
      "d u",
      "ľ à¥Īà¤¸",
      "à¥ģà¤° à¥ģà¤Ĩ",
      "Ġà¤¹à¥ĭĠà¤ľ à¤¾à¤ı",
      "à¤ķ à¥Ģà¤¨",
      "Ġthin kĠ",
      "78 9",
      "¬ à¥Īà¤Ĥà¤ķ",
      "ne edĠ",
      "raj esh",
      "à¤ķà¥įà¤² à¥Ĥà¤¸à¤¿à¤µ",
      "Ġb e",
      "Ġwill Ġ",
      "à¥ĩĠà¤ °",
      "à¥ĩĠà¤ķ à¥ģà¤Ľ",
      "à¥ī à¤ª",
      "chec kĠ",
      "à¤°Ġà¤ ®",
      "Ġc anĠ",
      "¤à¥ģà¤®à¥įà¤¹ à¥ĩà¤ĤĠà¤",
      "f ur",
      "l ist",
      "à¤² à¤¤",
      "Ġand ĠtheĠ",
      "ĠaboutĠ s",
      "u j",
      "« à¤¾à¤ĩà¤¨",
      "Ġà¤¸ à¤°à¥įà¤µà¤¿à¤¸",
      "Ġà¤ª à¥įà¤²",
      "your Ġf",
      "à¤¿à¤ķ à¥įà¤ķ",
      "à¥Įà¤¨ Ġà¤¬à¥ĭà¤²Ġà¤°à¤¹",
      "happ en",
      "? Ġthat'sĠ",
      "Ġà¤¬ à¥Īà¤Ĥà¤ķ",
      "Ġ kar",
      "Ĩ à¤ı",
      "à¥Ģ à¤°",
      "à¤¾à¤ Ł",
      "re allyĠ",
      "à¥ĩà¤¯ à¤°",
      "§à¤¨à¥įà¤¯à¤µà¤¾à¤¦ à¥¤Ġà¤",
      "ı à¤¡",
      "ľ à¤¾à¤¨",
      "re al",
      "ack ag",
      "Ġà¤¹à¥Īà¥¤Ġà¤ ®à¥Īà¤Ĥ",
      "o ic",
      "à¤° Ġà¤¹à¥Ī",
      "Ġà¤¬ à¤¾à¤°à¥ĩĠà¤®à¥ĩà¤Ĥ",
      ",Ġsir .Ġ",
      "bo ok",
      "Ġthough t",
      "à¤¹ à¤ļ",
      "ĠtoĠ ensureĠ",
      "Ġd el",
      "ab outĠ",
      "à¤¤à¤¾Ġà¤¹à¥Ī ,Ġà¤",
      "Ġapp lic",
      "usu ally",
      "f akeĠ",
      "Ġa Ġst",
      "Ġc harg",
      "à¤¿à¤¶ à¥įà¤",
      "Ġà¤¤à¥ĭĠà¤ ¬à¤¹à¥ģà¤¤Ġà¤",
      "à¥įà¤° à¥ĩà¤¶à¤¨",
      "Ġto Ġst",
      "à¤µ à¤¿",
      "Ġtr ust",
      "ĠI D",
      "¬ à¤¿à¤²à¤ķà¥ģà¤²",
      "à¤¾Ġà¤¸ à¤ķà¤¤",
      "¤à¥ģà¤® à¤¨à¥ĩĠà¤",
      "à¤Ĥ à¤Ńà¥Ģ",
      "whic hĠ",
      "o hĠ",
      "à¤¾à¤ĩ à¤²Ġà¤",
      "eĠs ec",
      ",Ġmr.Ġ sharma",
      "direct ly",
      "mor eĠ",
      "ch an",
      ",Ġ or",
      "ľà¤¼à¤°à¥Ĥà¤° à¥ĢĠà¤¹à¥Ī",
      "minist rativeĠ",
      "it ial",
      "à¤¤ à¥įà¤®",
      "as tĠ",
      "ut om",
      "à¤¾ Ġà¤ķà¤°",
      "à¥ĭà¤Ĥ Ġà¤ķà¤¾Ġà¤",
      "Ġpro vid",
      "h ot",
      "à¥ĩà¤Ĥ à¤¡",
      "ra h",
      "à¤¿à¤ª à¤¾à¤°à¥įà¤Łà¤®à¥ĩà¤Ĥà¤Ł",
      "it's ĠaĠ",
      "à¥ģ à¤Ĺ",
      "Ġà¤® à¤¦à¤¦",
      "Ġp er",
      "à¤¨à¥ĩĠà¤ ®à¥ĩà¤Ĥ",
      "up pos",
      "ra ud",
      "Ġà¤Ĩ à¤®à¤¤à¥Įà¤°Ġà¤ª",
      "y e",
      "¨ à¤®à¤¸à¥įà¤¤",
      "à¤¾Ġà¤ ¤à¤°à¥Ģà¤ķ",
      "is ion",
      "à¥įà¤° à¤¾à¤®",
      "à¥ĩĠà¤ ¥",
      "ĠaĠs pecial",
      "Ġwebs iteĠ",
      "in s",
      "re ally",
      "ul ar",
      "urg ent",
      "à¤Ĥà¤¡ à¤¿à¤¯",
      "à¤¾ Ġà¤ķà¥ĩĠà¤²à¤¿à¤ı",
      "âĤ¹ 4",
      "Ġà¤®à¥Īà¤Ĥ à¤¨à¥ĩĠà¤",
      "Ġalright ,Ġ",
      "à¥¤ Ġà¤¹à¤¾à¤ģ",
      "om etim",
      "Ġà¤° à¥ĭ",
      "re at",
      "à¥ĩĠà¤ķ à¤¾à¤®",
      "à¥Īà¤¸ à¤²",
      "a ,Ġ",
      "e ?ĠĠ",
      "à¤Ĥ à¤ķ",
      "lo okĠ",
      ".Ġwh oĠ",
      "unsolic itedĠ",
      "Ĩ à¤¸à¤¾à¤¨",
      "Ġà¤°à¤¹ à¤¾Ġà¤¹à¥Ī",
      "à¥ĢĠà¤¹à¥Īà¤Ĥ à¥¤Ġà¤",
      "befor eĠ",
      "r .",
      "Ġà¤ ļà¤¾à¤¹à¤¿à¤ı",
      "à¥ĭà¤Ĥ Ġà¤®à¥ĩà¤Ĥ",
      "Ġw ell",
      "à¥Īà¤Ĥà¤¡ à¤°à¥įà¤¡",
      "h um",
      "et t",
      "Ġà¤ķà¤°à¤¨à¥ĩĠà¤ µà¤¾à¤²",
      "Ġà¤°à¥ģà¤ªà¤¯ à¥ĩĠà¤ķ",
      "Ġconfirm ation",
      "à¥ĩà¤ ¬",
      "à¤¬ à¤¸",
      "à¤¾à¥¤Ġà¤ ¯à¤¹",
      "ens e.Ġ",
      "à¤¾à¤° à¤Ĥà¤Ł",
      "à¥ĩà¤¶ à¤¾à¤¨",
      "à¥ģà¤ķ à¤¿à¤Ĥà¤Ĺ",
      "à¤¾à¤¯à¤¦ à¤¾Ġà¤",
      "youĠc an",
      "j ay",
      "p on",
      "Ġà¤ķ à¥ĭĠà¤ķ",
      "it u",
      "à¤ļ à¤¾à¤¨à¤ķ",
      "onc eĠ",
      "ª à¥įà¤²",
      "el ect",
      "Ġà¤¹ à¥Ĥà¤Ĥ",
      "if tĠ",
      "le dĠ",
      "na hiĠ",
      "Ġà¤¹à¥ĩà¤² à¥ĭ",
      "7 6",
      "ri p",
      "Ġà¤ķà¥ĢĠà¤ ¡à¤¿à¤Łà¥ĩà¤²à¥įà¤¸",
      "à¥¤Ġ \"",
      "à¥įà¤°à¥ĩà¤¡ à¤¿à¤Ł",
      "? Ġà¤®à¥ģà¤Ŀà¥ĩĠà¤",
      "à¤¾à¤ĩ à¤ľà¤¼",
      "fe w",
      "part ment",
      "haveĠ a",
      "d ateĠ",
      "k ram",
      "ma yĠ",
      "port al",
      "Ġà¤ļ à¥ĩà¤ķ",
      "à¥ĭà¤°à¥įà¤Ł à¤²",
      "? ĠandĠ",
      "ar y",
      "Ġà¤ķà¥ĩĠà¤¬ à¤¾à¤¦",
      "Ġam ount",
      "à¤¾à¤¨à¤¦ à¤¾à¤°Ġà¤",
      "vig il",
      "s ,",
      "official Ġchannel",
      "à¥ĩ Ġ'",
      "ħà¤Ĺ à¤²",
      "à¥ĩĠà¤® à¥Īà¤¸à¥ĩà¤ľ",
      "à¥ĢĠà¤ľ à¤¾à¤¨à¤ķà¤¾à¤°à¥ĢĠà¤",
      "à¥įà¤ª à¥ĩà¤¶",
      "ħà¤° à¥ĩ,Ġà¤",
      "b est",
      "g lob",
      "h our",
      "à¥įà¤¯ à¥Ĥà¤",
      "Ġà¤ ĳ",
      "re fund",
      "you ĠtoĠ",
      "à¥ģà¤Ĺ à¤¤à¤¾à¤¨",
      "à¥Ī à¤ķà¥įà¤¶à¤¨",
      "r uc",
      "for ĠthisĠ",
      "i .Ġ",
      "à¥Īà¤ķ à¥įà¤¸",
      "Ġag ain",
      "ħà¤Ĺà¤°Ġà¤ķ à¥ĭà¤Ī",
      "g iv",
      "p ass",
      "y eh",
      "® à¤¦à¤¦",
      "Ġà¤ª à¥Ĥà¤Ľ",
      "itĠ wasĠ",
      "de ar",
      "à¥Ĥà¤¸ à¤°",
      "expir yĠ",
      "Ġc ert",
      "le tĠ",
      "à¥ģà¤® à¤¾à¤°",
      "à¥ĩà¤ķ à¥įà¤¶à¤¨",
      "Ġà¤ªà¤°Ġà¤ķ à¥įà¤²à¤¿à¤ķ",
      "forĠ immediateĠ",
      "ap oor",
      "à¥Īà¤ķ à¥įà¤Ł",
      "²à¥ĭà¤Ĺ à¥ĭà¤ĤĠà¤ķà¥ĭĠà¤",
      "c over",
      "à¤¾Ġà¤ ¯",
      "m iss",
      "Ġ UPI",
      "ł à¤Ĺ",
      "à¤¾Ġà¤ ıà¤ķ",
      "sĠ with",
      "à¤¤ à¥ĢĠà¤¹à¥Īà¥¤Ġà¤",
      "eĠt hatĠ",
      "à¤¾Ġà¤ľ à¤¾à¤ıà¤Ĺ",
      "f amil",
      "re p",
      "à¤¬ à¤¾à¤ľ",
      "em pt",
      ". ĠandĠ",
      "à¤¾à¤° à¥ĩĠà¤",
      "Ġà¤ħà¤° à¥ĩ,Ġà¤",
      "Ġmessag eĠ",
      "i qu",
      "i âĢĻ",
      "Ĩ à¤ĸ",
      "is ĠtheĠ",
      "à¥ģà¤ Ń",
      "ome thingĠ",
      "Ĩà¤®à¤¤à¥Įà¤°Ġà¤ª à¤°Ġà¤",
      "Ń à¥ĢĠà¤ķ",
      "on th",
      "ot p",
      "p o",
      "à¤¿à¤² à¥Ģà¤µ",
      "vi kram",
      "Ġany thingĠ",
      "à¤¾à¤¯à¤¦à¤¾Ġà¤ īà¤ł",
      "ĩ à¤Ĥà¤Ł",
      "us in",
      "Ġà¤¤ à¥Įà¤°Ġà¤ª",
      "ĩà¤¸ à¤²à¤¿à¤ı",
      "Ġà¤ķà¤°Ġà¤¸ à¤ķ",
      "ph oneĠ",
      "haveĠaĠ goodĠday",
      "Ġfin ancial",
      "g ra",
      "à¥ĢĠà¤ ıà¤ķ",
      "ha ven",
      "up dat",
      "Ġcon cern",
      "requ est",
      "ignific antĠ",
      "à¤§à¤¿à¤ķ à¤¾à¤°",
      "ch at",
      "ear li",
      "quick ly",
      "à¤¹à¤ļ à¤¾à¤¨",
      "chan nel",
      "- à¤ª",
      "Ġa tĠ",
      "d em",
      "Ġd at",
      "ľà¤¼à¤°à¥Ĥà¤° à¤¤",
      "¶à¥ģà¤ķà¥įà¤°à¤¿à¤¯ à¤¾à¥¤Ġà¤",
      "? Ġà¤¹à¤¾à¤ģ,Ġà¤",
      "ı à¤¸à¤ıà¤®à¤ıà¤¸",
      "à¤¾Ġà¤ ¡",
      "Ġc od",
      "your Ġm",
      "Ġà¤ķà¥įà¤¯ à¤¾?",
      "Ġp ar",
      "ra vi",
      "ıà¤ķĠà¤ Ľà¥ĭà¤Łà¤¾Ġà¤¸",
      "lim ited",
      "s ?Ġ",
      "ed Ġto",
      "om in",
      "à¥ī à¤¨",
      "Ĳà¤¸ à¥ĩĠà¤",
      "à¤¾Ġà¤¹à¥Ĥà¤Ĥ à¥¤Ġà¤",
      "it t",
      "à¤¾Ġà¤ķ à¤°Ġà¤",
      "qu est",
      "Ġà¤ķà¤°à¤¨à¥ĩĠà¤ķà¥ĩĠà¤²à¤¿à¤ı Ġà¤¶à¥ģà¤ķà¥įà¤°à¤¿à¤¯à¤¾à¥¤Ġà¤",
      "vert is",
      "ifĠ iĠ",
      "à¥ĢĠà¤ļ à¥Ģà¤ľà¤¼",
      "à¥ĢĠà¤¥ à¥Ģà¥¤Ġà¤",
      "Ġà¤¬à¤¹à¥ģà¤¤ Ġà¤¹à¥ĢĠà¤",
      "à¤¿à¤²à¥Ģà¤µ à¤°",
      ".Ġ itâĢĻsĠ",
      "le ad",
      "how Ġm",
      "Ġdis c",
      "in dia",
      "à¥ĢĠà¤ «",
      "Ġà¤¬ à¤¢à¤¼à¤¿à¤¯",
      "Ġdo ingĠ",
      "n omin",
      "an kĠ",
      ".ĠĠ exactly",
      "immediat elyĠ",
      "à¤¿à¤ķà¥įà¤¯à¥ĭ à¤°Ġà¤",
      "bet ter",
      "à¤Ĥà¤¤ à¤ľà¤¼",
      "s '",
      "th od",
      "em erg",
      "not ification",
      "requi re",
      "Ġdi rectĠ",
      "c or",
      "Ġs omeĠ",
      "ist ic",
      "b ec",
      "à¤¤ à¤²à¤¬",
      "Ġà¤¹à¥ĩà¤² à¥ĭĠà¤",
      "? ĠthatĠsoundsĠ",
      "a .",
      "ļ à¤²Ġà¤°à¤¹",
      "Ġà¤¹à¤®à¤¾à¤° à¥ĩĠà¤¸",
      "à¤¾Ġà¤¨ à¤¾à¤®",
      "Ġservic eĠ",
      "mad am",
      "® à¥Īà¤¡à¤®",
      "Ġw or",
      "à¤¾,Ġà¤ Ķà¤°Ġà¤",
      "¤à¥ģà¤®à¥įà¤¹ à¤¾à¤°à¥ĢĠà¤",
      "f ession",
      "it ?Ġ",
      "Ġà¤ķà¥ĩĠà¤ ª",
      ".ĠĠ iĠ",
      "à¥ĩĠà¤ª à¥įà¤°à¤¿à¤¯",
      "à¤¾à¤® à¤¿à¤²",
      "Ġà¤¬à¥ĭà¤²Ġà¤°à¤¹ à¤¾Ġà¤¹à¥Ĥà¤ģà¥¤Ġà¤",
      "Ġà¤¬à¤¿à¤²à¥įà¤ķà¥ģà¤²Ġà¤łà¥Ģà¤ķ Ġà¤¹à¥Ĥà¤ģ,Ġà¤",
      "¶ à¥ģà¤°à¥Ĥ",
      "Ġà¤¹ à¥ģà¤Ĩ",
      "à¤°Ġà¤ ¬",
      "Ġs am",
      "à¥ĭà¤Ĥ Ġà¤ķà¥ĩĠà¤¬à¤¾à¤°à¥ĩĠà¤®à¥ĩà¤Ĥ",
      "à¤« à¥įà¤¤",
      "h oĠ",
      "itĠ isĠ",
      "our c",
      "à¥ĢĠà¤° à¤ķà¤®",
      "à¥ĭà¤Ĺ à¥įà¤°à¤¾à¤®",
      "à¥ĩà¤® à¤Ĥà¤¦",
      "à¥ĭĠà¤ķ à¤¹",
      ".ĠiĠ wasĠ",
      "mo bileĠ",
      "? Ġà¤¯à¥ĩĠà¤¤à¥ĭĠà¤",
      "h ort",
      ",Ġà¤ ¯à¤¹",
      "à¥įà¤° à¤¿à¤ª",
      "if y",
      "per hap",
      "Ġà¤ķà¤°à¤¨à¤¾Ġà¤ ļà¤¾à¤¹à¤¤",
      "ªà¥įà¤°à¤¿à¤¯ à¤¾à¥¤Ġà¤",
      "excell entĠ",
      "Ġà¤ķà¥ī à¤²Ġà¤",
      "ĩ à¤Ĥà¤¸",
      "on g",
      "Ġà¤¨à¤¹à¥Ģà¤Ĥ Ġà¤ķà¤¿à¤¯",
      "rupe es",
      "teĠ hain",
      ".Ġ justĠ",
      "à¤¾Ġà¤ ¤à¥ĭĠà¤",
      "know n",
      "®à¤¿à¤¸à¥įà¤Łà¤°Ġà¤ ¶à¤°à¥įà¤®",
      "Ġthat's ĠaĠ",
      "°à¤ľà¤¿à¤¸à¥įà¤Ł à¤°à¥įà¤¡",
      "rah ul",
      ",Ġ how",
      "T P",
      "iĠ wasĠ",
      "à¤¿à¤¸ à¥įà¤¸",
      "disc uss",
      ".Ġ ĠthankĠyou",
      "ic alĠ",
      "Ġà¤¬à¤¿à¤²à¥įà¤ķà¥ģà¤² à¥¤Ġà¤",
      "direct lyĠ",
      "Ġt ell",
      "con n",
      "Ġass istĠ",
      "oll ow",
      "à¥ģà¤°à¥ģà¤Ĩ à¤¤",
      "ľ à¤¬",
      "Ġà¤ľ à¥Īà¤¸à¥ĩĠà¤",
      "Ġh e",
      "youĠ know",
      "īà¤¸ à¥ĩĠà¤",
      "cl ick",
      "à¥Ģà¤® à¤¿à¤¯à¤®",
      "a ut",
      "à¥ĩĠà¤ķ à¥ĭà¤Ī",
      "um ent",
      "Ġà¤Ĺ à¤ı",
      "ub lic",
      "quest ion",
      "¸ à¤®à¤Ŀ",
      "īà¤¨à¥įà¤¹à¥ĭà¤Ĥ à¤¨à¥ĩĠà¤",
      "O TP",
      "v v",
      "sĠ orĠ",
      "Ġà¤ª à¤¢à¤¼",
      "if i",
      "à¥ĩĠà¤ķ à¤¿",
      "im il",
      "à¥ĩà¤°à¤¿à¤« à¤¾à¤Ī",
      "hop eĠ",
      "- à¤¬",
      "a inĠ",
      "v el",
      "Ġs uch",
      "ac kĠ",
      "à¤¾à¤µ à¤¨",
      "Ġam ountĠ",
      "one -timeĠ",
      "ic leĠ",
      "à¥ĩĠà¤¹ à¥ĭĠà¤",
      "ur ityĠ",
      "Ġà¤ħ à¤ľà¥Ģà¤¬",
      "Ġhel p",
      "Ġch ec",
      "Ġav ail",
      "I n",
      ".Ġ goodby",
      "à¥ĩĠà¤ķ à¥įà¤¯",
      "over ĠtheĠ",
      "à¤¿à¤ķà¥įà¤° à¤®",
      "exp ed",
      "Ġde finit",
      "Ġwebs it",
      "Ġà¤¤ à¥ĭĠà¤ķ",
      "aĠ b",
      "à¤¾à¥¤ Ġ",
      "à¤¾à¤°Ġà¤ °",
      "à¥ģà¤°à¤ķà¥įà¤·à¤¿à¤¤Ġà¤ °à¤¹",
      "war en",
      "reci ateĠ",
      "Ġà¤ķà¥ĩĠà¤ ľ",
      "res pon",
      "ear ch",
      "help ful",
      "98 76",
      "à¥Ģ à¤Ĥ",
      "à¥ĢĠà¤ķ à¥ĭà¤Ī",
      "ens uresĠ",
      "tr ans",
      "Ġà¤ª à¤¤",
      ",Ġ it'sĠ",
      "à¥ī à¤ľ",
      ".ĠweĠ haveĠ",
      "fin al",
      "ĠtextĠ messageĠ",
      "Ġm eĠ",
      "and at",
      "à¥įà¤°à¥ĭ à¤«",
      "ris k",
      "ļ à¥ĩà¤ķ",
      "prev entĠ",
      "Ġà¤¬ à¤¿à¤²à¤ķà¥ģà¤²",
      "à¥ĩĠà¤® à¤¿à¤²",
      "re view",
      "at iv",
      "à¥Ĥà¤Ĥ ?",
      "Ġà¤ķà¥ĭà¤Ī Ġà¤¬à¤¾à¤¤Ġà¤",
      "u g",
      "w ift",
      "à¥į à¤°Ġà¤",
      "à¤¾Ġà¤ Ĺ",
      "Ġà¤¤ à¥ģà¤°à¤Ĥà¤¤",
      "mone yĠ",
      "Ġall Ġ",
      "earli er",
      "z ar",
      "à¤¿à¤« à¤Ĥà¤¡",
      "à¤Ĥà¤ª à¤°à¥įà¤ķ",
      "à¥Ĥ à¤Ł",
      "Ġtr y",
      "per t",
      ", Ġthank",
      "el ig",
      "go t",
      "op tion",
      "Ġà¤¹à¥ĭĠà¤ Ĺ",
      "Ġat t",
      "Ġà¤ ĳà¤¨à¤²à¤¾à¤ĩà¤¨",
      "à¤¾ Ġà¤ķà¤°à¤¨",
      "Ġà¤ħ à¤¬",
      "ack ageĠ",
      "Ġà¤Ĩ à¤®",
      "fre eĠ",
      "uj heĠ",
      "w ard",
      "âĤ¹ 3",
      "you' veĠ",
      "' Ġ",
      "Ĩ à¤¯",
      "Ĩ à¤Ĥà¤Ł",
      "Ġà¤¸ à¥ĩĠà¤¬à¤ļ",
      "Ġà¤ķà¥ĩĠà¤ ®",
      "Ġpro t",
      "à¤Ńà¥Ģ -à¤ķ",
      "Ġsome thingĠ",
      "nam eĠisĠ",
      "inĠtheĠ nextĠ",
      "kindĠ of",
      "f ast",
      "µ à¥ĩà¤°à¤¿à¤«à¤¿à¤ķà¥ĩà¤¶à¤¨",
      "à¥ī à¤²Ġà¤",
      "à¥ĩĠà¤¸ à¥ĩĠà¤",
      "à¤°Ġà¤ª à¤°Ġà¤",
      "eĠth e",
      "Ġà¤« à¤¿",
      "Ġà¤ īà¤¨à¤ķ",
      "à¥ĩ Ġà¤ķà¤°",
      "à¤¾Ġà¤¹à¥Ī Ġà¤Ķà¤°Ġà¤",
      "Ġd on",
      ",Ġà¤ľ à¤¿à¤¸",
      "m anyĠ",
      "à¤¾Ġà¤ ħà¤ķà¤¾à¤īà¤Ĥà¤Ł",
      "Ġad ministrativeĠ",
      "« à¥įà¤°",
      "Ġs o,Ġ",
      "à¤¤ à¥ĢĠà¤¹à¥Ī",
      "à¤¿à¤¸à¥ĢĠà¤ Ńà¥ĢĠà¤",
      "rat her",
      "it alĠ",
      "µà¤¾à¤ ¦",
      "Ġthey '",
      "haven 'tĠ",
      "Ġb o",
      "à¤¿à¤¶à¥įà¤ ļ",
      "Ġà¤ħà¤° à¥ĩĠà¤",
      "h ol",
      "à¤° à¥ĩà¤¶à¤¾à¤¨",
      "ent ic",
      "un t",
      "un iqu",
      "à¤¯ à¥ĭà¤Ĺ",
      "Ġà¤ľà¤¼ à¥įà¤¯à¤¾à¤¦",
      "à¤¾Ġà¤ļ à¤²",
      "ļ à¤¾à¤°à¥įà¤ľ",
      "ing h",
      "ing ĠandĠ",
      "Ġan il",
      "à¤¨à¤¾Ġà¤ ļà¤¾à¤¹à¤¤",
      "50 ,000",
      "h esit",
      "à¤µ à¤°",
      "Ġt ar",
      ".Ġ you",
      "our Ġsystem",
      "Ġin st",
      "¬à¤¿à¤²à¥įà¤ķà¥ģà¤² Ġà¤¸à¤¹à¥Ģ",
      "5 000",
      "Ġt e",
      "Ġt ext",
      "ingĠ your",
      "de pos",
      "oc ument",
      "Ġà¤ķà¤°à¤¨à¥ĩĠà¤ ¸",
      ",Ġ but",
      "Ġp l",
      "à¤¿à¤² à¤ļà¤¸à¥įà¤ª",
      "Ġà¤« à¥ĭà¤¨",
      "Ġà¤ķà¤°Ġà¤¦ à¥Ģà¤ľà¤¿à¤ı",
      "à¥ĢĠà¤® à¥ĩà¤Ĥ",
      "e' veĠ",
      "ba h",
      "pot ential",
      "ª à¥Īà¤¸",
      "à¥ĩà¤¶à¤¨ à¤²Ġà¤",
      "cre ateĠ",
      "edĠ for",
      "à¥ĩĠà¤ªà¤¹à¤² à¥ĩĠà¤",
      "ĩ à¤Ĥà¤¤à¤ľà¤¼",
      "à¤¾Ġà¤¹ à¥ĭĠà¤",
      "yes ,Ġs",
      "à¥ĩà¤¯ à¤°Ġà¤",
      "à¥ĩà¤¹ à¤¤",
      "ĸà¥įà¤¯à¤¾à¤² Ġà¤°à¤ĸà¤¨",
      "p at",
      "Ġà¤¬ à¤¿à¤¨",
      "Ġà¤« à¥įà¤°",
      "²à¥ĩà¤ķ à¤°Ġà¤",
      "Ġà¤¬à¤¿à¤²à¥įà¤ķà¥ģà¤² Ġà¤¸à¤¹à¥Ģ",
      "Ġadv anc",
      "ļ à¥Ģà¤ľà¤¼",
      "Ġà¤ıà¤ķ Ġà¤",
      ",Ġà¤ľ à¥ĭĠà¤",
      "Ġà¤ķà¤¨à¥įà¤«à¤°à¥įà¤® à¥ĩà¤¶à¤¨",
      "g iveĠ",
      "i bil",
      "¤ à¤ķ",
      "Ġ l",
      "th ingĠs",
      ".ĠĠ excellent",
      "Ġà¤¹à¥ĭ à¤¤à¤¾Ġà¤¹à¥Īà¥¤Ġà¤",
      "à¤¿à¤ª à¥ĭà¤°à¥įà¤Ł",
      "ħà¤² à¤µà¤¿à¤¦",
      "A ap",
      "Ġ C",
      "à¥ĢĠà¤ µà¤¾à¤²",
      "à¥ĩĠà¤¹ à¥ģà¤ı",
      "verifi edĠ",
      "à¤¾à¤¤ à¤¾Ġà¤¹à¥Īà¥¤Ġà¤",
      "Ńà¥ĩà¤ľ Ġà¤¦",
      "2 0",
      "ĩ à¤¤",
      "à¤¾à¤ §",
      "Ġta x",
      "rightĠ now",
      "ª à¤¡à¤¼",
      "à¤¨ à¤Ĥà¤¦",
      "Ġà¤¤ à¥Īà¤¯",
      "Ĩà¤ªà¤ķ à¥ĢĠà¤",
      "à¤¾à¤ĩ à¤µ",
      "unic ation",
      ", ĠthisĠisĠ",
      "en al",
      "Ġp ersonal",
      "yourĠ registeredĠ",
      "¯à¤¾Ġà¤ «à¤¿",
      "Ġà¤¬à¤¿à¤²à¥įà¤ķà¥ģà¤² Ġà¤¸à¤¹à¥Ģà¥¤Ġà¤",
      ",Ġa ur",
      "ĠthatĠmak esĠs",
      "5 4",
      "b as",
      "¡ à¤¿à¤ľà¤¿à¤Ł",
      "µ à¥ĭĠà¤ķ",
      "ļ à¤¿à¤Ĥà¤¤",
      "ļ à¥Īà¤¨à¤²",
      "cer t",
      "à¤°à¥Ĥ à¤°Ġà¤",
      "à¤¾ Ġ'",
      "Ġt w",
      "es ĠareĠ",
      "ol veĠ",
      "à¥ĩĠà¤¬ à¤¹à¥ģà¤¤Ġà¤",
      "Ġà¤°à¤¹ à¥ĩĠà¤¹à¥Īà¤Ĥ",
      "Ġà¤¶ à¤¾à¤¨à¤¦à¤¾à¤°Ġà¤",
      "Ġpri or",
      "Ġà¤ Ĳà¤ª",
      "Ġs end",
      "?Ġ \"",
      "?Ġ ĠtheĠ",
      "Ġà¤ķà¥ĢĠà¤ ¬à¤¾à¤¤",
      "Ġà¤ķà¥ĩĠà¤ľ à¤°à¤¿à¤ı",
      "d igital",
      "à¥ĩ à¤¤à¥ĩĠà¤¹à¥Īà¤Ĥà¥¤Ġà¤",
      "eĠ is",
      "Ġp a",
      "®à¥ĩà¤° à¥ĩĠà¤",
      "mostĠ welcom",
      "we ek",
      "wonder ful",
      ", Ġà¤¹à¥ĪĠà¤¨",
      "e as",
      "à¤² à¤¾à¤ĩà¤¨",
      "li k",
      "à¥ĢĠà¤¸ à¤²à¤¾à¤¹",
      "Ġà¤ķà¤°Ġà¤¦ à¥ĩà¤¤",
      "confirm ation",
      "à¥¤Ġà¤ķà¥įà¤¯à¤¾Ġà¤ Ĩà¤ª",
      "person al",
      "g l",
      "Ġà¤¹à¤® à¥ĩà¤ĤĠà¤",
      "Ġà¤¶ à¥ģà¤°à¥Ĥ",
      "comm on",
      "ret urn",
      "Ġà¤¹à¥Ī Ġà¤Ķà¤°Ġà¤",
      "th erĠ",
      "Ġal soĠ",
      "īà¤¨ à¤ķà¥ĩĠà¤",
      "à¥¤Ġà¤ķ à¥ĥà¤ªà¤¯à¤¾Ġà¤",
      "ĠassistĠ you",
      "b u",
      "à¥ģ à¤°à¥įà¤®",
      "Ġpro fil",
      "®à¤¿à¤¸à¥įà¤Ł à¤°Ġà¤ķ",
      "ing Ġto",
      "ha d",
      "Ġà¤¨à¤Ĥà¤¬ à¤°Ġà¤",
      "Ġà¤ķà¥īà¤² Ġà¤ķà¤°Ġà¤°à¤¹",
      "man ag",
      "c ha",
      "d ayĠ",
      "Ł à¤¾à¤ĩà¤®",
      "in rĠ",
      "ingĠ feeĠ",
      "Ġà¤ıà¤ķ Ġà¤¸",
      "ke ep",
      "b eĠtr",
      "Ł à¥ĩà¤ķ",
      "on ly",
      "Ġs endĠ",
      "cr uc",
      "Ġpleas eĠ",
      "à¤¬à¤¸à¥ĩĠà¤ ħà¤ļà¥įà¤Ľ",
      "Ġà¤¹à¥ĭ à¤¤à¤¾Ġà¤¹à¥Ī",
      "Ġa utom",
      "à¥ĩĠà¤¹ à¥ĭà¤Ĥà¤Ĺ",
      "ingĠ m",
      "à¤¾Ġà¤ķ à¤¾à¤°à¥įà¤¡",
      "Ġà¤ķà¤°Ġà¤¸ à¤ķà¤¤à¥ĩĠà¤¹à¥Īà¤Ĥ",
      "vid e",
      "ļ à¤²",
      "à¤¨ à¥ĩà¤¸",
      "em p",
      "ho on",
      "i'mĠ good",
      "j oĠ",
      "à¥įà¤ ŀ",
      "ĠthisĠ s",
      "st andardĠ",
      "¯à¤¹ Ġà¤¸",
      "notĠ s",
      "99 9",
      "Ġdetail sĠ",
      "Ġà¤¸à¥ĭà¤ļ Ġà¤°à¤¹",
      "b enef",
      "p atch",
      "ro s",
      "3 2",
      "à¥įà¤ µà¤¾à¤",
      "Ġa uthor",
      "not ic",
      "r en",
      "¨ à¤ı",
      "² à¤¿à¤ĸ",
      "à¥Ģ Ġà¤ķà¥ĩĠà¤¬à¤¾à¤°à¥ĩĠà¤®à¥ĩà¤Ĥ",
      "ar tĠ",
      "Ġà¤ķà¥ĢĠà¤ ª",
      "leg al",
      "Ġà¤¥à¥ĭà¤¡à¤¼ à¤¾Ġà¤",
      "Ġà¤°à¥ĭ à¤¹à¤¨",
      "Ġà¤® à¤¿à¤¸à¥įà¤Ł",
      "à¥ī à¤°à¥įà¤¡",
      "ex pl",
      "uth entic",
      "Ġà¤¹à¤ľà¤¼ à¤¾à¤°Ġà¤°",
      "à¤°Ġà¤ķ à¥īà¤²",
      "iv id",
      "ifĠ itĠ",
      "do es",
      "c al",
      "Ġm ed",
      "Ġà¤¡ à¤¿à¤Łà¥ĩà¤²à¥įà¤¸",
      "Ġà¤ķà¥ĭ à¤¡",
      "e ,ĠandĠ",
      "p ric",
      "p ress",
      "à¤¹ à¥ĢĠà¤",
      "Ľà¥ĭà¤Ł à¥ĢĠà¤¸",
      "t a",
      "Ġ of",
      "ver y",
      "em por",
      "à¤¤à¥ĩĠà¤¹à¥Īà¤Ĥ ,Ġà¤",
      "?ĠĠ yes,",
      "¬à¤¹à¥ģà¤¤Ġà¤ ¸",
      "Ġà¤ĩà¤¸ à¥ĩĠà¤",
      "regard ing",
      "Ġtypic allyĠ",
      "at iveĠ",
      "à¤¿à¤¯ à¤°",
      "as k",
      "à¤¾à¥¤ Ċ",
      "à¤¾à¤« à¥ĢĠà¤",
      "Ġà¤ħà¤Ĺ à¤²",
      "mention ed",
      "Ġthere 's",
      "cruc ial",
      "w areĠ",
      "Ġ verification",
      "à¤¨ à¥ĩ",
      "ri ya",
      "import antĠ",
      "Ġà¤¹à¤®à¥ĩà¤¶ à¤¾Ġà¤",
      "vigil ant",
      "bah utĠ",
      "re port",
      "iou s.Ġ",
      "ħ à¤¸",
      "à¤¾à¤¨ à¥Ĥà¤¨",
      "fir st",
      "mad eĠ",
      "à¥ĭà¤¬ à¤¾à¤ĩà¤²Ġà¤",
      "1 5",
      "a kĠ",
      "Ĩà¤ªà¤ķ à¥ĢĠà¤¸",
      "Ġw ouldĠ",
      "Ġcom plet",
      "iz edĠ",
      "he alth",
      "Ġà¤¹à¥Īà¤²à¥ĭ ,Ġà¤ķà¥įà¤¯à¤¾Ġà¤",
      "a uthoriz",
      "ing ĠaboutĠ",
      "à¥ĢĠà¤ķ à¤Ĥà¤ªà¤¨",
      "à¤¾à¤¹ à¥ģà¤²",
      "Ġad vertis",
      "à¥Īà¤¸à¥ĩĠà¤ķ à¤¿",
      "n er",
      "à¤° à¥Ģà¤¦",
      ",Ġ especiallyĠ",
      "il d",
      "ĳà¤« à¤°Ġà¤",
      "Ġag re",
      "gre atĠ",
      "c ard",
      "ħ à¤Ńà¥Ģ",
      "Ġth ing",
      "re leas",
      "es ĠandĠ",
      "el i",
      "he ard",
      "oc ial",
      "Ġhello ,ĠiĠ",
      "à¤¾à¤Ĺ à¤°à¥Ĥ",
      "k apoor",
      "ĸ à¤°à¥įà¤ļ",
      "à¥ĭ à¤¡",
      "har eĠ",
      "cl ud",
      "Ġam it",
      "prot ocol",
      "f l",
      "v e",
      "à¤¿à¤ Ĺ",
      "Ġth ous",
      "Ġà¤¸ à¥ĩ",
      "Ġà¤¤ à¥Ĥ",
      "ĳà¤« à¤¿à¤¸",
      "à¥ĩ,Ġà¤ ¤à¥ĭĠà¤",
      "Ġà¤ħà¤ª à¤¨à¤¾Ġà¤",
      "Ġà¤ªà¥įà¤° à¤ķà¥įà¤°à¤¿à¤¯",
      "inst ant",
      "rupe esĠ",
      "d et",
      "Ġà¤ ĺ",
      "Ġà¤® à¥Įà¤ķ",
      "Ġst ep",
      "à¤¨à¥įà¤« à¤¼",
      "à¤¿à¤ķà¥įà¤¯à¥ĭ à¤°",
      "@ ok",
      "à¤¾à¤° à¥įà¤ķ",
      "Ġal loc",
      "Ġacc essĠ",
      "à¤¿à¤¶à¥įà¤ļ à¤¿à¤¤",
      "yes,Ġs peak",
      "b estĠ",
      "ĸ à¤¼",
      "à¤¾à¤ĩ à¤¡",
      "Ġthat âĢĻsĠ",
      "did n'tĠ",
      "Ġs o",
      "Ġto Ġavo",
      "à¤¾Ġà¤ķ à¤¾à¤®",
      "īà¤¸ à¤®à¥ĩà¤Ĥ",
      "registr ation",
      "ıà¤ķà¥įà¤¸à¤ª à¤¾à¤¯à¤°",
      "f ac",
      "Ġà¤¸ à¤¿à¤¸à¥įà¤Łà¤®",
      "à¥ĩĠà¤® à¥ĩà¤ĤĠà¤",
      "op le",
      "pri or",
      "Ġtrans ferĠ",
      "Ġà¤ķà¤°à¤¨à¥ĩĠà¤ Ķà¤°Ġà¤",
      "Ń à¥ģà¤Ĺà¤¤à¤¾à¤¨",
      "à¤° à¤£",
      "à¤Ĥ à¤ľ",
      "ur antĠ",
      "à¥ĩĠà¤¬ à¥Īà¤Ĥà¤ķ",
      "V V",
      "à¥Ģ à¤«",
      ",Ġ M",
      "edĠ in",
      "un cle",
      "à¤¾à¥¤ Ġà¤ķà¥įà¤¯à¤¾Ġà¤",
      "wa yĠ",
      "per i",
      "Łà¥įà¤°à¤¾à¤Ĥ à¤ľ",
      "goodĠtoĠ beĠtr",
      "webs iteĠ",
      "Ġà¤¹à¥Ī à¥¤",
      "your Ġaccount",
      "Ġm ain",
      "à¥įà¤ķ à¤¿à¤²",
      "âĤ¹ 7",
      "opportun ityĠ",
      "upfron t",
      "Ġcert ain",
      "nomin al",
      "à¥ĩ à¤²Ġà¤",
      "Ġà¤ķ à¤¸à¥įà¤Łà¤®",
      "it sĠ",
      "il kul",
      "ac hĠ",
      "Ġthe yĠs",
      "à¤¿à¤µ à¤¾à¤°",
      "number ,Ġ",
      "ıà¤ķà¥įà¤¸ à¥ĩà¤¸",
      "à¤¨à¥įà¤«à¤¼ à¤°à¥įà¤®",
      "a re",
      "µ à¥ĭ",
      ". ĠthankĠyouĠfor",
      "Ġ A",
      "à¥ĭ à¤ľ",
      ".Ġ Ġthat'sĠ",
      ".Ġ it's",
      "à¤¹ à¤¯à¥ĭà¤Ĺ",
      "at ingĠ",
      "ĩà¤¸ à¤®à¥ĩà¤Ĥ",
      "à¥ĢĠà¤¹ à¥ģà¤Ī",
      "à¥ĢĠà¤® à¤¦à¤¦",
      "¤à¥ģà¤®à¥įà¤¹à¤¾à¤° à¥ĩĠà¤",
      "part ic",
      "Ġse eĠ",
      "Ġà¤Ńà¥ĩà¤ľ Ġà¤¦",
      "hasĠ been",
      "ivid ual",
      "n et",
      "ĸ à¤¤à¤°",
      "Ġà¤¸ à¥ĩĠà¤¬à¤¾à¤¤",
      "Ġan jal",
      "Ġp art",
      "à¥ĩà¤Ł à¤µ",
      "iĠs uppos",
      "à¤¾à¤¯à¤° à¥ĩà¤ķà¥įà¤Ł",
      "ħà¤ľà¥Ģà¤¬ Ġà¤²à¤Ĺ",
      "à¤¾à¤¨à¥ĩĠà¤ µà¤¾à¤²",
      "f un",
      "w al",
      "itĠ s",
      "di rectĠ",
      "Ġà¤¹à¤¾à¤Ĥ ,Ġà¤",
      "à¥įà¤°à¥ī à¤¡",
      "eĠ of",
      "à¥Ģ à¤",
      "à¤¨ à¤²Ġà¤",
      "ver ma",
      "à¤¾Ġà¤ķ à¤¿à¤¸à¥ĢĠà¤",
      ".Ġw e'reĠ",
      "à¤¾Ġà¤ª à¥įà¤°",
      "Ġà¤ĩ à¤Ĥà¤¡à¤¿à¤¯",
      "des ign",
      "fur ther",
      "ĩ à¤®",
      "es .ĠĠ",
      "à¥ĩĠà¤¹ à¤¾à¤ģ",
      "à¥ĭà¤Ĥ Ġà¤ªà¤°Ġà¤",
      "li ent",
      "forĠ you",
      ".ĠĠoh ,",
      "ħà¤® à¤¿à¤¤",
      "à¥ĢĠà¤ķ à¥ģà¤Ľ",
      "qu it",
      "à¥įà¤¯à¥Ĥ à¤Ł",
      "45 6",
      "Ġc r",
      "Ġac tĠ",
      "¬à¤¿à¤²à¥įà¤ķà¥ģà¤² à¥¤Ġà¤",
      "ĳà¤«à¤¿à¤¶à¤¿à¤¯à¤²Ġà¤ µà¥ĩà¤¬à¤¸à¤¾à¤ĩà¤Ł",
      "Ġà¤¸à¥ĩĠà¤ľ à¥ģà¤¡à¤¼",
      "w ould",
      "st ay",
      "rec ord",
      "uc cess",
      ".Ġhow ever",
      "Ĩà¤ªà¤ķà¥ĩĠà¤ ħà¤ķà¤¾à¤īà¤Ĥà¤Ł",
      "à¤¾à¤®à¤¾à¤¨ à¥įà¤¯",
      "i x",
      "° à¤¾à¤ľà¥ĩà¤¶",
      "ar m",
      "Ġan and",
      "iĠ needĠtoĠ",
      "ĩà¤¸ à¤ķà¥ĩĠà¤²à¤¿à¤ı",
      "ess ential",
      "à¥ĢĠà¤¸ à¥ĭà¤ļ",
      "à¤¾à¤¹ à¤¬",
      "ħà¤Ĺà¤°Ġà¤ Ĩà¤ª",
      "Ġà¤ªà¥įà¤°à¥ĭà¤¸à¥ĩà¤¸ à¤¿à¤Ĥà¤Ĺ",
      "ribut ion",
      "ħ à¤ļà¤¾à¤¨à¤ķ",
      "Ġs ub",
      "Ġà¤ª à¥Īà¤¸",
      "ind ow",
      "ĠareĠyouĠdoing Ġtoday",
      "à¤¾Ġà¤ Ńà¥ĢĠà¤",
      "is ĠaĠ",
      "Ĩà¤ªà¤ķ à¤¾Ġà¤¸",
      "¯à¤¹ Ġà¤ıà¤ķ",
      "Ġà¤®à¤¿à¤² Ġà¤ľà¤¾à¤ıà¤Ĺ",
      "sec ure",
      "rip tion",
      ".Ġ i'm",
      "or tĠ",
      "Ġà¤ª à¥Īà¤¸à¥ĩĠà¤",
      "Ġà¤² à¥ĩà¤¨",
      "iĠs houldĠ",
      "Ġà¤ķà¥Īà¤¸ à¥ĩĠà¤¹à¥ĭ?",
      "à¤¾Ġà¤¹à¥Ī,Ġà¤ Ķà¤°Ġà¤",
      "cont act",
      "à¥Īà¤¸à¥ĩĠà¤® à¤¾à¤ģà¤Ĺ",
      "f ollow",
      "¢ à¥Ĥà¤Ĥ",
      "à¥ĭ à¤®",
      "Ġa Ġd",
      "Ġà¤Ĩ à¤Ĺ",
      "ens ur",
      "he ar",
      "cr itical",
      "b r",
      "k h",
      "ħ à¤ķà¥įà¤¸à¤°Ġà¤",
      "Ġà¤ķ à¤¾Ġà¤¸",
      "à¥ĢĠà¤ķ à¥ĢĠà¤",
      "ba atĠ",
      "Ġah ,Ġ",
      "Ġà¤¹à¤ľà¤¼à¤¾à¤°Ġà¤° à¥ģà¤ªà¤¯",
      "par tĠ",
      "ep t",
      "f raud",
      "er v",
      "Ġà¤¸ à¥Ģà¤§",
      "ħà¤ª à¤¡à¥ĩà¤Ł",
      "ifĠ youĠ",
      "Īà¤® à¥ĩà¤²",
      "Ġa waren",
      "keĠ ba",
      "¯à¥ĩĠà¤ ²à¥ĭà¤Ĺ",
      "Ġà¤¤à¥ģà¤®à¥įà¤¹ à¥ĩà¤ĤĠà¤",
      "govern ment",
      "3 0",
      "à¥ĩ ,",
      "à¥ĩĠà¤¬ à¤¤",
      "wa re",
      "Ġà¤¤à¥ģà¤®à¥įà¤¹ à¤¾à¤°à¥ĢĠà¤",
      "Ġà¤¯à¤¾Ġà¤ «à¤¿à¤°Ġà¤",
      "sĠ of",
      "à¤¿à¤Ł à¥ĩà¤¡",
      "à¥įà¤² à¥īà¤Ł",
      "Ġà¤Ĩ à¤ı",
      "wh yĠ",
      "ĠtooĠ goodĠtoĠbeĠtr",
      "glob al",
      "? Ġà¤ķà¥įà¤¯à¤¾Ġà¤",
      "m er",
      "w is",
      "Ġà¤ķ à¤Ńà¥ĢĠà¤",
      ".Ġ hello",
      "Ġà¤ķà¤° à¥ĩà¤Ĥ",
      "¡ à¥ĩà¤Ł",
      ".Ġ i'll",
      "à¤°Ġà¤ķ à¥ĭà¤Ī",
      "Ġà¤µ à¥ĩà¤°à¤¿à¤«à¤¿à¤ķà¥ĩà¤¶à¤¨",
      "way ĠtoĠ",
      "ap pro",
      "à¤µà¤¾à¤ Ĥ",
      "get t",
      "Ġcomm on",
      "à¥ĢĠà¤ķà¥įà¤¯ à¤¾Ġà¤®",
      "à¤¿à¤ ·",
      "Ġt ak",
      "ingĠ you",
      "à¤¿à¤« à¤¿à¤ķà¥ĩà¤¶à¤¨",
      "me inĠ",
      "ationĠ isĠ",
      "requi red",
      "à¥Ĥà¤Ĥà¤Ĺ à¤¾à¥¤Ġà¤",
      "à¥ĢĠà¤ķà¥įà¤¯à¤¾Ġà¤® à¤¦à¤¦Ġà¤ķà¤°Ġà¤¸à¤ķà¤¤",
      "à¥Ī à¤Ł",
      "ic Ġ",
      "à¤¤à¥ĩĠà¤¹à¥Īà¤Ĥ Ġà¤ķà¤¿",
      ".ĠiĠ will",
      "ho g",
      "redĠ flag",
      "Ġpe opleĠ",
      "Ġp re",
      "Ġà¤¬ à¤¡à¤¼",
      "à¥įà¤Ł à¥įà¤°",
      "à¥ĢĠà¤ľ à¤²à¥įà¤¦",
      "Ġà¤¹à¥Īà¤Ĥ ,Ġà¤",
      "Ġdetail s",
      "ħà¤ļà¥įà¤Ľà¤¾Ġà¤²à¤Ĺ à¤¾à¥¤Ġà¤",
      "emb er",
      "à¤Ńà¥Ģ-à¤ķ à¤Ńà¥ĢĠà¤",
      "à¤¾à¤ ¶",
      ".Ġ your",
      "re li",
      "ot ential",
      "uniqu eĠ",
      "c ustom",
      "g ate",
      "à¤¨ à¤¾à¥¤Ġà¤",
      "à¥ĢĠà¤ ²",
      "Ġs pecial",
      "Ġtr yĠtoĠ",
      "Ġà¤¬à¤¹à¥ģà¤¤Ġà¤ ħà¤ļà¥įà¤Ľ",
      "fession al",
      "Łà¥įà¤°à¤¾à¤Ĥà¤ľ à¥Īà¤ķà¥įà¤¶à¤¨",
      "m atter",
      "Ġa uthoriz",
      "ing .ĠwhoĠ",
      "ıà¤ķà¥įà¤¸ à¤ķà¥įà¤²à¥Ĥà¤¸à¤¿à¤µ",
      "Ġthough tĠ",
      "ĩ à¤¤à¤¨",
      "à¤¨à¤¾Ġà¤ ļà¤¾à¤¹à¤¿à¤ı",
      "res sĠ",
      "confirm Ġyour",
      "mr.Ġ sharma",
      "ev enĠ",
      "val id",
      "mention edĠ",
      ". ĠareĠyou",
      "à¥ĩà¤ ļ",
      "ingĠ itĠ",
      "Ġà¤ķà¤°à¤¨ à¤¾à¥¤Ġà¤",
      "up gra",
      "wouldĠ beĠ",
      "¯à¥ĩĠà¤¤à¥ĭĠà¤ ¬à¤¹à¥ģà¤¤Ġà¤",
      "ble m",
      "¶ à¤¾à¤®à¤¿à¤²",
      "ha m",
      "Ġm an",
      "à¤¾Ġà¤¸ à¥ĭà¤ļ",
      "ħà¤² à¤Ĺ",
      "del ay",
      "ĠaskĠ for",
      "imil ar",
      "Ġà¤ľ à¤¿à¤¨",
      "Ġcon s",
      "Ġà¤¬à¥ĭà¤²Ġà¤°à¤¹ à¤¾Ġà¤¹à¥Ĥà¤ģ",
      "likeĠth at",
      "Ġà¤ Łà¥įà¤°",
      "yourĠc ardĠ",
      "karneĠ keĠliy",
      "«à¤¾à¤ĩà¤¨ à¥ĩà¤Ĥà¤¶à¤¿à¤¯",
      "b ad",
      "Ġp ort",
      "all Ġ",
      "®à¥Īà¤Ĥ Ġà¤Ĩà¤ªà¤ķ",
      "à¥ĩĠà¤ Ķà¤°Ġà¤",
      "eĠth ing",
      ",Ġand ĠtheĠ",
      "UPI ĠID",
      "Ġà¤ªà¥Ĥà¤° à¥ĢĠà¤¤à¤°à¤¹",
      "à¤¾à¤ª à¤¨",
      "s ĠaĠbitĠ",
      "Ġà¤¸ à¥ĩà¥¤Ġà¤",
      "Ġc lear",
      "à¤¾à¤ĩ à¤Ĥà¤Ł",
      "Ġà¤¬à¤¹à¥ģà¤¤Ġà¤ ¸",
      "à¤¾à¤ĵ à¤Ĥ",
      "® à¤¿à¤¸",
      "Ġs oon",
      ".ĠĠ yes,",
      "à¥ĢĠà¤¸ à¤°à¥įà¤µà¤¿à¤¸",
      "Ġal ert",
      "Ġà¤ıà¤ķ à¥įà¤Łà¤¿à¤µ",
      "¨à¤¹à¥Ģà¤Ĥ à¥¤Ġà¤",
      "legitim at",
      "o tion",
      "ª à¤¤",
      "Ĺ à¥įà¤°",
      "Ġa way",
      "à¤¾Ġà¤¸ à¤ķ",
      "prev ent",
      "c urr",
      "ª à¥Īà¤¸à¥ĩĠà¤",
      "ª à¥įà¤°à¥ĭà¤¸à¥ĩà¤¸",
      "Ġs ureĠ",
      "?Ġ ĠweĠ",
      "ingĠ forĠ",
      "rem ot",
      "fort un",
      "s hip",
      "à¥ĩĠà¤ ¤à¥ĭĠà¤",
      "Ġà¤¹ à¥ĩà¤²à¥įà¤",
      "à¤¸ à¥ĩĠà¤¬à¤¾à¤¤",
      "Ġc ustomer",
      "Ġà¤ķà¤° à¤µ",
      "con s",
      "ll Ġ",
      "ľà¤¼à¥įà¤¯à¤¾à¤¦ à¤¾Ġà¤",
      ".ĠĠokay ,Ġ",
      "54 32",
      "p tĠ",
      "y b",
      "eĠ you",
      "Ġc our",
      "iĠ haveĠ",
      "pro gram",
      "likeĠ aĠ",
      "Ġsa fe",
      "l ow",
      "v inc",
      "Ġ on",
      "eĠ forĠ",
      ".Ġ i",
      "or y",
      "ed ĠtheĠ",
      "Ġc ardĠ",
      "à¤¿à¤ķ à¥įà¤°Ġà¤",
      "à¤¿à¤ķ à¥īà¤°à¥įà¤¡",
      "¯à¤¹ à¤¾à¤ģ",
      "à¤¿à¤¸à¥įà¤Ł à¥įà¤°",
      "à¤¾Ġà¤® à¥Īà¤¸à¥ĩà¤ľ",
      "à¤°à¤ķ à¤¾à¤°",
      "ĠtakeĠ care",
      "Ġchec k",
      "Ġ 4",
      "Ġà¤ķ à¤Ĥà¤ªà¤¨",
      ",Ġ rohan",
      "Ġà¤ĩà¤¸ à¤ķ",
      "Ġà¤łà¥Ģà¤ķ Ġà¤¹à¥Ĥà¤ģ,Ġà¤",
      "ext rem",
      "Ĩà¤ĸ à¤¿à¤°",
      "Ġà¤¸ à¥ĩĠà¤¹",
      "Ġà¤® à¤¾à¤Ĥà¤Ĺ",
      "à¤¾à¤Ĥ à¤ļ",
      "good ĠtoĠbeĠ",
      "à¤¾à¤ķ à¤°Ġà¤",
      "¯à¥ĩĠà¤¸ à¤¬",
      "Ĩà¤Ĺ à¥ĩĠà¤¬à¤¢à¤¼",
      "à¤µà¤¾à¤Ĥ à¤¸",
      "ı à¤¨",
      "Ġà¤ķ à¥ĢĠà¤ķ",
      "à¥Ĥ à¤ª",
      "ingĠ up",
      "à¤¾Ġà¤¥ à¤¾Ġà¤ľ",
      "īà¤¸ à¤®à¥ĩà¤ĤĠà¤",
      "Ġà¤Ĺ à¥įà¤°",
      ". ĠalwaysĠ",
      "c od",
      "Ġà¤¸ à¤ļ",
      "à¤¿à¤¯ à¤¾à¤ģ",
      "Ġà¤Ń à¥Ģ,Ġà¤",
      "prom pt",
      "ib le",
      "Ġà¤ıà¤ķà¥įà¤¸ à¥ĩà¤¸",
      "itu ation",
      "cor rect",
      "à¥Ī à¤ļ",
      "Ġà¤ķà¥ĢĠà¤ ľ",
      "Ġà¤ķà¥ĢĠà¤ ¤à¤°à¤«",
      "s ,ĠandĠ",
      "à¤¿à¤ ¬",
      "à¥įà¤ §",
      "sĠ in",
      "à¥ĩà¤¶à¤¨ à¤²",
      "Ġ ofĠ",
      "ur eĠtoĠ",
      "à¤°Ġà¤ª à¤°Ġà¤ķà¥īà¤²",
      "e. Ċ",
      "à¥ģà¤¶ à¥įà¤ķà¤¿à¤²",
      "fic i",
      "Ġinform ation",
      "Ġt er",
      "it em",
      "à¤°Ġà¤ķ à¥ĭĠà¤",
      "ľà¤²à¥įà¤¦ à¥Ģ",
      "¢à¥Ĥà¤Ĥ à¤¢",
      "i ally",
      "ĩ à¤²",
      "à¥įà¤¯ à¥ģà¤¨",
      "à¤¿à¤Ĥ à¤¹",
      ",Ġs oĠ",
      "²à¥ĭà¤Ĺ à¥ĭà¤Ĥ",
      "Ġà¤ħà¤ļà¥įà¤Ľ à¤¾Ġà¤°à¤¹",
      "numberĠ isĠ",
      "uspic iousĠ",
      "Ġprom pt",
      "- à¤Ł",
      "e z",
      "Ĺ à¤Ĥà¤Ńà¥Ģ",
      "st ep",
      "à¥ĢĠà¤ķ à¤¾Ġà¤",
      "à¤²à¥įà¤ ¡",
      "Ġà¤Ń à¤°",
      "ľà¤²à¥įà¤¦ à¤¬à¤¾à¤ľ",
      "receiv edĠ",
      "°à¥ĭ à¤ķ",
      "Ġaur Ġ",
      "webs it",
      "ar i",
      "à¥ī à¤Ĺ",
      "?ĠĠ oh",
      "à¥Ģà¤® à¤¤",
      "à¤¿à¤ľ à¥įà¤ŀ",
      "zar oor",
      "w ereĠ",
      "µ à¥ĩĠà¤",
      "Ġà¤® à¥ī",
      "Ġà¤¨ à¤ı",
      "à¤¾à¤¹ à¤ķ",
      "Ġà¤°à¤¹ à¤¾Ġà¤¥à¤¾à¥¤Ġà¤",
      "aw areĠ",
      "ĠwillĠ receiveĠ",
      "Ġte am",
      "à¥ĭà¤¬à¤¾à¤ĩà¤²Ġà¤ ¨à¤Ĥà¤¬",
      "Ġt empor",
      "Ġà¤¹à¥Ī,Ġà¤ Ķà¤°Ġà¤",
      "ıà¤ķĠà¤®à¥Īà¤¸à¥ĩà¤ľ Ġà¤Ĩà¤¯",
      "sĠ forĠtheĠ",
      "re am",
      "it self",
      ",Ġ '",
      "Ġand Ġs",
      "he j",
      "n 't",
      "¬ à¤¾à¤¤Ġà¤",
      "Ġà¤¸ à¤°,Ġà¤",
      "im person",
      "à¥įà¤¸ Ġà¤ķà¥ĭĠà¤",
      "iĠc anĠ",
      "à¥Īà¤¨ à¥ĩà¤ľ",
      "b hiĠ",
      "ľ à¤°",
      "ou p",
      ",Ġ itĠ",
      "Ġà¤² à¥ĩà¤ķ",
      "e.Ġ iĠ",
      "with outĠ",
      "official ĠwebsiteĠ",
      "Ġà¤Ĺà¤¯ à¤¾à¥¤Ġà¤",
      "ĠthatĠmakesĠs ense.Ġ",
      "f ri",
      "à¥ĭ à¤ĸ",
      "ch ed",
      "²à¤Ĺ à¤¤à¤¾Ġà¤¹à¥Ī",
      "ĠS MS",
      "h isĠ",
      "ed ?Ġ",
      "Ġf re",
      "res earch",
      "Ġà¤ķà¤°à¤¨à¥ĩĠà¤ķà¥ĩĠà¤²à¤¿à¤ı ,Ġà¤",
      "Ġà¤ĩ à¤¤à¤¨",
      "S MS",
      "ec ureĠ",
      "om ent",
      "Ġà¤¨ à¥ĩĠà¤",
      "st ant",
      "up dateĠ",
      "off ers",
      "regard ingĠ",
      "dec ision",
      "i ĠassistĠyou",
      "n ic",
      "à¥Ī à¤¦",
      "ou ch",
      "Ġc ustom",
      "Ġp remium",
      "Ġà¤¦ à¤¿à¤¨",
      "à¥ĢĠà¤ķ à¤¿",
      "à¤¿à¤¶ à¤¨",
      "Ġà¤ªà¤°Ġà¤ ľ",
      "process ing",
      "itiz en",
      "Ġapplic ation",
      "ĠtooĠgoodĠtoĠbeĠtr u",
      "g am",
      "¬ à¤¹",
      "Ġà¤ķ à¥ĩĠà¤ķ",
      "à¤Ĺ à¤¾à¥¤Ġà¤",
      "is n'tĠ",
      "ĠaĠ link",
      "?ĠĠ no",
      "i'm ĠdoingĠ",
      "à¥ĢĠà¤ľ à¤Ĺà¤¹",
      "ľà¤²à¥įà¤¦ à¥ĢĠà¤¸",
      "ef fici",
      "loc kĠ",
      "ignific ant",
      "quit eĠs",
      "uccess ful",
      "à¤² Ġà¤®",
      "Ġà¤ª à¥ĭà¤°à¥įà¤Łà¤²",
      "with ĠtheĠ",
      "à¤¾Ġà¤ļ à¤²Ġà¤°à¤¹",
      "read yĠ",
      "oft enĠ",
      "acc ountĠ",
      "à¥Ģ à¤ļ",
      "Ġà¤¹ à¤¾à¤¯",
      "Ġà¤ª à¥Īà¤ķà¥ĩà¤ľ",
      "à¥įà¤¸ Ġà¤ķà¥ĩĠà¤²à¤¿à¤ı",
      "Ġà¤¹à¥ĭ à¥¤Ġà¤",
      "à¤¨à¤¾Ġà¤ ħà¤ļà¥įà¤Ľ",
      "Ġà¤¡ à¤¿à¤ªà¤¾à¤°à¥įà¤Łà¤®à¥ĩà¤Ĥà¤Ł",
      "call ingĠ",
      "Ġà¤¹à¥ĭĠà¤ľà¤¾à¤ıà¤Ĺ à¤¾à¥¤Ġà¤",
      "in itial"
    ]
  }
}